#version: 0.2
Ġ t
Ġ a
h e
i n
r e
Ġ o
a t
Ġ s
Ġ c
o n
Ġt he
e n
i s
a l
e r
e s
Ġo f
o r
o m
Ġ in
Ġ p
Ġ f
a n
i t
e d
Ġ b
Ġ m
Ġ d
n d
i on
i c
l e
a r
r o
Ġ w
Ġa nd
a s
in g
c t
u s
en t
l o
v e
Ġ h
Ġt o
Ġ is
Ġ T
o u
Ġ -
Ġ n
Ġt h
o s
m p
Ġs y
i l
Ġo r
r a
Ġ re
at ion
i d
l y
Ġ e
Ġ g
e t
o p
i g
i a
Ġa re
Ġb e
o d
a y
Ġ (
ĠT he
Ġ A
t om
Ġ l
e l
or m
r om
o t
mp tom
u r
Ġc an
Ġ S
u t
m ent
it h
u m
he r
Ġsy mptom
Ġw ith
Ġp ro
Ġth at
Ġ I
u l
y p
Ġh a
c h
Ġc on
Ġm ay
s t
f e
Ġo n
Ġd is
Ġa n
Ġ C
Ġf or
o l
Ġ he
o w
Ġs t
i m
Ġ M
re at
l s
es t
Ġ P
s e
Ġ y
t h
Ġd e
c e
u re
i r
Ġha ve
ig n
a b
e op
as e
i f
u d
it ion
a m
Ġy ou
a us
Ġw h
ic al
eop le
Ġc h
Ġa s
Ġ H
g e
ct ion
c y
n t
Ġp eople
is t
v er
Ġg en
d ition
u n
Ġ D
Ġs ign
Ġt reat
i ve
i al
q u
Ġe x
Ġs e
es s
Ġsymptom s
Ġcon dition
Ġ us
h at
t er
u al
c er
Ġin f
lo w
Ġc aus
a d
Ġ ?
ar t
in e
fe ct
i ent
Ġp at
Ġa b
nd rom
c l
i es
p e
p h
W hat
Ġ v
ndrom e
Ġb lo
u p
Ġc el
it y
al l
Ġc om
Ġ O
Ġsy ndrome
Ġdis e
orm ation
Ġf rom
e m
Ġn e
at e
Ġtreat ment
en cy
a re
a k
orm al
Ġblo od
i v
f fect
ar y
a ct
Ġ R
t her
ient s
re s
Ġcan cer
er s
Ġdise ase
he n
a ge
os is
yp e
om e
a c
Ġb y
Ġinf ormation
Ġf re
Ġ B
Ġ r
Ġfre qu
Ġ F
Ġyou r
g n
Ġ le
ab le
ĠI n
u g
b er
a il
o re
Ġpat ients
a in
Ġ ra
an t
t e
ls o
cl ud
or t
Ġin clud
Ġt r
ig h
Ġa lso
Ġ G
at ed
an s
y s
Ġthe se
ul t
Ġn um
t en
Ġa t
il d
Ġ E
Ġw e
Ġa l
c c
Ġnum ber
or d
Ġn ot
ic h
os t
Ġth is
u ch
Ġ k
Ġm an
Ġa ffect
Ġwh o
i b
n ormal
Ġh ow
ation s
Ġd o
on e
Ġ N
Ġf e
lo p
Ġre s
Ġgen e
Ġsign s
as es
Ġcel ls
Ġd ia
Ġ 5
m s
ra p
Ġ 2
Ġ lo
Ġfrequ ency
as t
ou t
od y
Ġs h
her it
n e
res s
Ġ 9
Ġa v
Ġin herit
Ġwh ich
rap y
Ġo ther
Ġst ud
l in
Ġ9 0
Ġm ed
et ic
m on
Ġof ten
Ġ it
Ġ L
lo g
ail able
Ġav ailable
Ġs p
Ġcaus e
Ġb ody
Ġ 7
Ġl i
Ġon e
ve lop
Ġo cc
o us
Ġt est
al th
p l
Ġh as
at ure
Ġl ist
ĠM ed
Ġocc ur
ual ly
g er
or s
il l
i z
Ġt ype
Ġde velop
Ġf ra
an ce
Ġstud y
Ġ5 0
Ġc all
h y
Ġp er
Ġin t
f ic
g en
Ġ en
d u
Ġdis ord
Ġg ro
Ġcall ed
Ġre c
pe c
id e
Ġ 1
) .
igh t
os e
Ġa d
o c
i mp
Ġm ut
Ġdia gn
Ġfra ction
os om
is k
Ġc ases
ĠT h
re d
Ġra re
am in
Ġ W
Ġm ore
o log
b le
Ġpro v
Ġhe art
k in
an d
Ġm e
Ġhe alth
i p
a ch
Ġpro te
Ġus ually
Ġ imp
k e
Ġch ild
ou nd
re nt
ul ar
Ġr isk
Ġman y
Ġab out
c re
Ġp art
Ġf ol
iv id
Ġinclud e
Ġp re
Ġm us
Ġ if
ĠR e
m o
as ed
Ġtr ial
is s
Ġaffect ed
ug h
ĠG en
lin ical
ar d
Ġd if
Ġcom mon
Ġprov id
a g
an g
r y
osom al
o od
ro ugh
u ro
u e
c k
ivid ual
Ġin d
on d
Ġfol low
Ġs uch
Ġcon t
ou r
' s
t ion
l p
ut osomal
Ġc he
Ġprote in
ĠI f
Ġs pec
ĠTh is
Ġt um
Ġhe lp
re n
el l
Ġ Y
ow n
i e
Ġn o
ĠA b
as ia
Ġ up
) ,
Ġdisord er
im ate
Ġt yp
u nd
ra in
Ġab normal
Ġpro ble
Ġc linical
c le
Ġind ividual
Ġcel l
ur ger
Ġinherit ed
if ic
e p
urger y
olog y
aus e
en d
p p
l d
Ġfe ature
um an
u b
le ct
it is
n ess
Ġwe re
Ġex amin
Ġ2 5
Ġ un
om a
Ġthe rapy
a mp
er t
Ġc ol
t al
ĠF or
l ine
Ġp l
or y
ĠH uman
Ġf orm
id ne
hen ot
Ġfollow ing
ĠP henot
Ġlist ed
Ġexamin ed
Ġa r
Ġs ome
Ġh yp
Ġproble ms
Ġtreatment s
c es
Ġt iss
Ġth an
v ent
Ġf ound
nt ology
ĠO ntology
ĠPhenot ype
Ġal l
Ġtrial s
Ġs kin
in al
o k
ĠThe se
ĠAb normal
en ce
om et
ction s
ph y
c ause
l us
Ġm ost
ĠS y
e ar
Ġoccur s
c ent
ir st
im es
Ġthe y
Ġe y
fic i
ac k
Ġres ult
c ed
fe rent
am il
st em
i le
Ġthe ir
Ġb rain
ure s
fici ency
Ġus e
Ġm ak
P lus
Ġf irst
ĠMed line
ĠMedline Plus
en s
Ġdo ct
Ġp ers
Ġmed ic
r u
Ġme ans
Ġa c
Ġdif ferent
l u
Ġindividual s
Ġmut ations
Ġb ut
mp h
il ity
ot her
g h
s s
ou gh
r ug
Ġmed ical
at hy
ess ive
r on
Ġm o
Ġk idne
Ġgen etic
Ġpers on
ĠT est
Ġne ed
omet imes
amp le
Ġsy stem
Ġcaus es
ĠY ou
Ġspec ific
ĠB e
Ġper cent
it al
ĠI t
ang es
Ġint o
Ġin fe
Ġe ar
Ġus ed
Ġ U
Ġt ak
Ġdoct or
Ġf amil
m all
Ġ im
Ġp ain
Ġe ach
un g
ĠAbnormal ity
m un
Ġ ly
Ġw ill
Ġre l
act er
Ġn ormal
Ġp h
n own
Ġle ad
f ter
y st
ĠS t
em ia
Ġo ut
pp ro
p er
Ġrec essive
Ġa utosomal
Ġtum or
Ġc are
Ġgro w
is m
Ġcaus ed
ĠGen etic
i ation
ĠH yp
Ġ low
i ous
Ġcom p
Ġc ar
Ġmus cle
Ġprovid es
Ġf act
Ġdiagn osis
ĠC h
Ġgro up
t ic
er m
o id
Ġth rough
Ġc op
Ġra d
ve re
Ġan other
Ġd i
Ġ V
Ġb ased
ter n
a p
ur ing
Ġin cre
Ġ est
Ġde ficiency
reat ment
Ġlo ok
Ġch anges
ĠS ome
Ġbe en
Ġs mall
Ġpre vent
in d
Ġw hen
un ction
b et
Ġ j
in t
on g
er al
Ġv ar
Ġ ur
ot h
a v
it ies
c ond
Ġin v
e ver
is e
Ġa ct
ro l
mptom s
Ġly mph
Ġa fter
pl asia
Ġtyp es
ou ld
re ad
Ġn er
ĠT reatment
a ir
Ġlo ss
Ġ und
ĠSy mptoms
ro w
Ġtest s
Ġex ample
p ort
Ġha d
ign s
bet es
Ġpro du
Ġle ve
Ġin s
on es
Ġb one
Ġse cond
as s
Ġse vere
ĠS igns
ĠBe cause
Ġs urgery
v ed
H ow
ou nt
a ce
im e
Ġtr ans
Ġinherit ance
Ġ X
Ġinclud es
Ġm al
ical ly
Ġund er
r al
Ġse en
Ġgen es
Ġb et
ot he
Ġw he
om en
k ing
Ġh igh
Ġdevelop ment
ĠS ometimes
Ġo ver
Ġde f
ro phy
t ing
0 0
Ġ K
Ġchild ren
ppro x
pprox imate
Ġw or
Ġtiss ue
Ġcondition s
on s
ay s
Ġs c
Ġinv ol
ic ro
in es
Ġne w
Ġl ung
ĠA n
Ġd uring
om in
Ġt w
ph al
omin ant
Ġg et
iz ed
Ġsp read
ĠH e
Ġbe low
Ġre mo
Ġman age
Ġkidne y
Ġd ys
Ġey e
ver y
m ia
Ġa m
othe rapy
ert ain
Ġas s
ic k
Ġd ominant
Ġto tal
Ġa p
it e
Ġt e
r ic
Ġmo ve
s y
Ġli ver
Ġcol lect
w e
Ġre du
ĠO r
Ġm y
Ġt ime
Ġfeature s
Ġan y
ĠMed ical
c ies
Ġch ar
i um
g ress
at ive
Ġf at
o g
op l
Ġan t
Ġt ra
Ġsh ould
Ġch rom
Ġmanage ment
T he
Ġ 3
Ġche m
Ġp ress
Ġpercent age
Ġt able
ar ch
oc i
our ces
ĠA pproximate
Ġd rug
Ġcom es
P O
Ġf unction
Ġdef in
er ms
an cer
Ġb re
ĠP eople
Ġde p
ĠE uro
ĠEuro pe
Ġchar acter
mun e
he s
ĠO ther
ĠM uch
en cies
2 5
Ġp res
Ġest imate
a x
oci ated
ar c
Ġd at
w hen
op athy
ĠEurope an
o int
Ġtw o
ion s
Ġrad iation
Ġre se
Ġfact ors
Ġcollect ed
ition s
Ġ rough
Ġt erms
ab ase
Ġdat abase
at ing
ic tion
ut e
Ġd am
v en
op h
Ġpress ure
Ġor g
ph an
Ġdefin itions
r an
Ġres ources
H PO
Ġfrequ encies
phan et
ĠOr phanet
Ġfraction s
f er
ĠD iction
ĠDiction ary
c ess
v es
Ġwe ak
Ġat t
Ġsh ow
Ġdia betes
ĠD ia
Ġimp air
Ġa ge
h ood
o cy
iv ity
are nt
Ġon ly
in k
Ġe ffect
ĠRe g
f ore
ĠA l
ist ry
ie w
Ġc ertain
n s
o ly
ĠH ow
d er
ĠTest ing
pe ar
Ġleve ls
Ġs ur
Ġc o
Ġre t
Ġgrow th
i ed
Ġne uro
is ion
Ġli ke
Ġs ub
r im
Ġtyp ically
Ġs up
Ġinclud ing
u es
l i
Ġse ver
l es
y m
ĠReg istry
Ġb oth
Ġc lo
Ġ ro
Ġe p
ĠS urgery
at h
Ġsh ort
Ġfamil y
Ġd et
Ġass ociated
r ib
Ġpro ced
gen ital
Ġre g
om y
Ġap pear
c o
on t
Ġs o
ĠA utosomal
ast ic
Ġc or
ab ility
at ic
at er
ĠN e
Ġpat tern
Ġk nown
s is
Ġmove ment
ic e
ĠThe re
Ġmak e
Ġm et
Ġy ear
le x
os ed
Ġabnormal ities
Ġh ist
st ru
Ġrel ated
ĠS h
Ġres p
I s
Ġtum ors
Ġb l
on ia
Ġinfe ction
Ġcop y
Ġo p
ur rent
en ing
Ġg l
el ing
Ġac id
b in
Ġh orm
ys ical
Ġtreat ed
t s
at ory
Ġar ter
Ġear ly
Ġbe fore
Ġbe ing
Ġlow er
g in
r i
ail ure
Ġf lu
Ġcont rol
el s
Ġf ood
ce phal
u k
c ular
e ct
Ġdisord ers
v ing
ron ic
Ġhyp er
Ġp arent
ib le
ĠC ancer
c op
Ġs er
ar row
Ġtiss ues
Ġbe c
Ġdiagn ose
ro id
Ġv ess
os ome
ation al
Ġpro gress
Ġimpair ment
am m
Ġp al
Ġinfe ctions
ĠI I
i an
ĠS e
f t
ĠW hen
Ġchem otherapy
Ġpart s
Ġf ind
re b
ed ing
Ġmut ation
ĠHow ever
v iew
Ġ qu
ĠM ost
Ġaffect s
Ġd one
opl asia
an ge
Ġdam age
k ed
it ary
y ly
Ġin j
Ġb ones
er g
d e
Ġp os
an cy
Ġchild hood
Ġhist ory
Ġrese arch
Ġdo es
ĠP ro
Ġp ar
it s
ĠSh ort
Ġl ar
ir th
ip le
x y
Ġli fe
Ġam ount
Ġur ine
am e
i o
at es
Ġb ack
cl es
Ġ ir
Ġs ug
iz ures
ut ations
re ct
Ġg o
Ġresult s
Ġchrom osome
ĠGen e
ant s
act yly
Ġen d
al s
Ġprovid er
os p
it ation
k nown
Ġim mune
Ġblo ck
l amm
Ġflu id
i red
t he
Ġ 4
ĠD e
ĠD ise
Ġmus cles
ĠA s
d ro
Ġde fect
and s
Ġdys plasia
ar ing
i or
Ġc al
fic ult
Ġimp ort
od es
lin ked
Ġorg ans
n er
Ġa g
we en
Ġlo c
Ġprotein s
Ġche ck
Ġm icro
th ough
Ġun known
Ġm on
' t
Ġb reat
Ġab d
ad der
Ġimport ant
z ym
Ġl ong
ĠR es
Ġvar ious
h ing
ar g
Ġproced ure
Ġdrug s
Ġdep end
her s
b s
Ġre ce
b l
Ġit s
Ġmak ing
ĠTest s
Ġb irth
Ġtak e
Ġw omen
it ive
ac ial
Ġad ult
Ġf ing
id ent
N A
Ġmedic ines
Ġre d
c rib
ĠDia gn
ys is
ab il
Ġyear s
Ġatt ack
Ġd yst
Ġweak ness
Ġbe cause
Ġdif ficult
Ġhe ad
Ġbe gin
Ġs w
o ch
rim ary
ĠI nt
Ġdi et
el ay
Ġad d
u c
ct ive
Ġph ysical
Ġgen eral
f ul
Ġf ailure
Ġner ve
Ġb u
Ġen zym
Ġg iv
st it
est er
ĠD rug
ĠThe y
el lect
p t
Ġbet ween
ĠA d
Ġint est
re e
ĠRe view
Ġvess els
Ġst age
Ġact ivity
Ġcon s
Ġex p
Ġj oint
st e
Ġspec ial
Ġwhe re
ellect ual
v al
Ġl im
u f
Ġin stru
Ġcharacter ized
Ġdis ability
e reb
ou th
Ġmedic ations
Ġredu ce
ent er
n ing
ro und
Ġv ision
g s
Ġimp ro
i op
al k
Ġthe re
Ġm ild
Ġant ib
Ġt ub
Ġex t
Ġin ter
Ġ ve
Ġlike ly
Ġst and
Ġsub st
Ġm en
ost ic
Ġha ir
er c
Ġa cc
Ġan emia
ĠP at
ou ns
ĠC he
Ġs pe
ic ular
ĠM an
ad e
Ġbre ast
Ġbec ome
lu c
ĠY our
ĠCh ild
as al
Ġd es
Ġli p
Ġm outh
Ġb le
Ġch ol
Ġwe ight
Ġl ess
Ġdise ases
iz e
u nt
Ġdiagn osed
r itis
Ġm ult
Ġhe aring
Ġs mo
Ġincre ased
Ġare as
Ġtak ing
Ġwor k
ĠS p
Ġkidne ys
ur al
Ġm em
Ġm ain
per i
o x
Ġwith in
port ed
ĠC are
ĠN ational
Ġbu ild
Ġhealth y
Ġfe w
Ġm uch
ro ke
Ġpro cess
Ġex peri
le ep
Ġhe m
Ġex am
ke le
ĠC on
ar r
Ġw ell
Ġsever al
ag es
Ġwhe ther
ag ing
Ġle uk
ouns eling
h abil
Ġs low
habil itation
Ġey es
ocy t
Ġch ronic
Ġinstru ctions
Ġm ight
Ġhorm one
Ġche st
ĠDiagn ostic
all i
s et
Ġs ide
Ġlung s
Ġ ident
Ġf em
ct s
an ces
i od
ro p
Ġenzym e
Ġof fer
c in
ester ol
Ġst op
Ġlar ge
ul ation
Ġ very
Ġadd ress
alli ative
ĠThe rapy
Ġthe m
ru ct
Ġpres ent
Ġc le
et h
Ġinvol ved
Ġ 6
Ġstand ard
C I
Ġne ck
Ġus es
pl ic
ĠDise ase
Ġinf lamm
Ġbl adder
Ġpre gn
Ġf ib
Ġform s
Ġn on
Ġm a
Ġcop ies
Ġremo ve
Ġs ens
as is
Ġcon genital
Ġv ir
Ġ J
ial ly
ĠIn stit
Ġ "
ĠRe habilitation
Ġcar ry
Ġident if
ul in
Ġhelp s
Ġble eding
ĠB lo
Ġgiv en
Ġf low
f orm
t r
Ġdevelop ing
ut er
g est
ffect ed
Ġ es
v ar
Ġwith out
Ġg luc
i et
e k
Ġp ass
ĠC ounseling
Ġst art
c om
ĠE n
ĠRes ear
ĠN I
Ġincre ase
Ġimpro ve
ĠP alliative
The se
re m
ĠE x
Ġur in
he d
ist ic
Ġo b
at osis
Ġneed ed
w ay
Ġ x
ĠPat ients
kele tal
in s
log ical
Ġd elay
Ġse izures
ld er
Ġth ose
te red
Ġdis t
Ġexperi ence
Ġus ing
cl er
Ġchol esterol
Ġc l
Ġm ade
Ġk e
m end
Ġsp inal
tion s
Ġbre ak
cephal y
Ġpat ient
r it
erg y
cre ased
Ġc ard
Ġp oly
ĠMan y
Ġst ature
Ġto o
Ġdyst rophy
Ġrec om
ĠHe alth
Ġeffect s
ur ia
tern al
Ġad dition
Ġst ruct
red itary
n ot
ion al
Ġm in
v ous
Ġd own
ra m
Ġfem al
Ġrecom mend
n al
ĠM y
Ġal tered
g al
Ġp rimary
ĠBlo od
p at
f ormation
ist s
t y
in o
Ġne ar
Ġs ame
Ġr ight
e ch
ĠT o
Ġs ometimes
ĠU n
Ġd ue
xy gen
y l
ul l
Ġe m
Ġb acter
Ġen ough
Ġgluc ose
ĠC o
ic t
lo s
Ġc ord
Ġ :
Ġtra ct
p le
as m
ent al
Ġat rophy
Ġmut ated
tom a
Ġfact or
a f
ĠL e
och ond
r h
Ġl ab
Ġadult s
D S
Ġle gs
Ġfing er
Ġc yst
ax ia
ĠN CI
Ġa round
an n
it ing
Ġha ving
Ġcom plic
Ġner vous
g ia
Ġe ven
r ia
ro ph
Ġre qu
Ġse e
cop e
it ed
Ġre m
Ġv al
Ġprogress ive
i re
Ġcharacter istic
Ġa ut
Ġf acial
Ġs leep
an e
Ġcomp le
Ġprodu ction
c ul
Ġf ace
Ġch ange
Ġtest ing
Ġparent s
Ġc at
Ġins ide
hy dro
ĠInstit ute
h yp
Ġw ay
Ġ ure
Ġw ays
Ġbet ter
Ġo xygen
ot ic
ĠHyp er
Ġcan not
ul mon
ĠA ffected
ary n
d en
ĠP ar
Ġpos s
he a
Ġab s
Ġre f
arc oma
Ġ ver
ĠSt age
Ġmult iple
re l
Ġare a
l ing
Ġeffect ive
Ġb r
Ġmon th
Ġre st
th ritis
Ġcaus ing
f us
p ro
Ġv it
Ġin c
C A
pl ant
Ġa ir
ig ment
Ġfood s
Ġpart icular
ra ct
Ġsup port
Ġke ep
Ġw as
Ġfamil ial
Ġse x
od ies
s on
Ġsug gest
or n
Ġser ious
it u
ten s
Ġwh ile
ig est
Ġl ight
r ial
Ġinflamm ation
Ġm arrow
ĠA m
Ġn asal
Ġper iod
Ġro le
Ġc ent
ir atory
Ġn ose
Ġex erc
Ġleuk emia
r in
Ġbreat hing
ro s
Ġg ast
ĠD is
Ġdes crib
Ġs ize
Ġcal c
Ġo lder
y roid
ro sis
om as
Ġth ree
c hers
Ġst roke
Ġabd omen
Ġn odes
ĠM utations
Ġre ported
on al
ie ve
t ed
olog ist
om inal
Ġb ab
ĠR ad
n ow
Ġp ict
rom b
ulmon ary
iop sy
Ġc ereb
00 0
Ġinj ur
Ġt end
ot onia
Ġhe mo
ort ic
h ol
Ġd ay
Ġext ra
Ġ her
ment s
Ġleve l
Ġvir us
Ġtub e
cle ar
Ġsever ity
Ġintest ine
Ġd u
li ke
Ġmonth s
Ġte eth
Ġspe ech
fic ient
Ġwh ite
Ġb en
Ġint ellectual
Ġmem b
le tion
os ter
ĠNe uro
Ġtrans plant
Ġwe ek
Ġlymph oma
mon g
Ġper form
pec ially
Ġs k
ĠC om
ĠM icro
ĠHe art
ĠResear chers
ĠII I
osom es
ar m
ĠD NA
Ġfrequ ent
tom ach
Ġfe ver
ĠSy ndrome
Ġcomplic ations
Ġarter ies
Ġtr ig
es is
ot or
Ġcom bin
Ġme as
Ġsc an
v ir
rel ated
_ _
ĠA t
j or
od e
ut r
Ġen ergy
is h
st ate
ment al
Ġle ar
Ġir on
Ġ ill
ĠH igh
Ġs tomach
Ġ1 0
Ġin fect
Ġup per
g et
ell ing
o ol
Ġg ra
Ġv ary
Ġposs ible
Ġh and
Ġdepend s
Ġrec o
Ġhow ever
Ġmal es
og ra
ĠH em
ĠChild ren
Ġc ount
er ation
Ġk now
Ġs ample
ol i
pe ct
T h
o im
Ġa mong
ed ia
ig her
Ġdefect s
Ġth ough
ĠAl though
Ġb iopsy
cy c
ress ion
Ġpregn ancy
Ġc urrent
Ġremo ved
ĠO p
ĠW e
it ochond
Ġth in
Ġl if
ĠM us
ĠL ow
ĠP h
Ġcont in
Ġmicro s
Ġe very
t ain
Ġs uf
ĠA r
Ġde ath
cyc lop
lo b
osp ital
ĠEn cyclop
ĠEncyclop edia
Ġpl an
co hol
ĠMed ic
Ġes pecially
h av
Ġd on
ro gen
Ġh ands
id es
ell ar
in a
ane ous
o b
Ġw al
ia c
Ġpal ate
Ġstud ies
Ġidentif ied
Ġfe et
Ġma jor
Ġfemal es
ing s
Ġs al
ent ric
Ġurin ary
h o
il ar
Ġdet ect
p athy
l a
Ġen l
lo c
il y
idne y
Ġcomple te
ate le
act ive
Ġa way
on ic
Ġorg an
Ġe ating
gn itive
Ġlead s
u mp
Ġarter y
Ġal though
Ġmo le
Ġab ility
Ġs keletal
Ġl ink
ab ol
Ġch ance
Ġcomp lex
Ġear s
Ġs us
Ġvit amin
Ġse arch
Ġv is
Ġcont ain
g i
as h
Ġmak es
Ġep is
Ġle ast
Ġgeneral ly
gal y
oim mune
v ic
th al
ĠL y
Ġsubst ances
Ġbacter ia
Ġill ness
om iting
Ġsug ar
Ġpl ac
ĠK idney
arr hea
Ġcommon ly
Ġget ting
H yp
Ġh igher
Ġth yroid
Ġinf ants
Th is
r up
on ary
er ic
Ġst em
ĠS c
y e
Ġe lect
b e
ĠP re
el an
Ġhe reditary
re am
ĠI nd
Ġinf ancy
cler osis
Ġon set
Ġdi rect
Ġmovement s
Ġo var
Ġp an
Ġb al
o or
ogra phy
ut es
iet y
ĠM al
Ġsuf ficient
Ġh ard
Ġabnormal ity
i otic
hy th
w ays
ĠI V
Ġincre ases
Ġ unt
Ġpro per
Ġim aging
Ġc y
Ġp ot
m a
um m
ver s
Ġfamil ies
ence phal
Ġtak en
d le
ĠC linical
ol es
Ġrece ive
r ink
w ard
Ġbe l
Ġcar cin
Ġrem ain
Ġc ure
ly ing
Ġf l
Ġf ore
Ġm ater
ĠA plasia
Ġlead ing
ur n
us t
hav ior
) ;
at al
ĠCon genital
oli osis
Ġin h
ign ant
Ġnormal ly
Ġner ves
ĠW ith
Ġabd ominal
n ia
it her
Ġcon ne
ĠE p
Ġun us
p sy
Ġ 8
ost osis
Ġexerc ise
Ġa pp
Ġmedic ine
Ġsmo king
id osis
Ġpro state
ch n
Ġd igest
od erm
ĠA c
m an
Ġc ir
Ġproble m
Ġth ink
ome galy
Ġsw elling
arg et
c ing
Ġm id
est inal
m et
Ġ enter
Ġcol on
Ġact ive
Ġcalc ium
i os
p ar
Ġs a
d actyly
vir on
il ls
id er
en ia
Ġl ast
Ġins ulin
Ġmal formation
al ysis
Ġre pl
S A
Ġh y
Ġneuro logical
i omy
r ation
re g
ial ysis
Ġmy opathy
Ġdescrib ed
Ġs he
Ġb ow
Ġst ress
ĠT alk
Ġar ms
Ġim mun
Ġ2 0
Ġman ner
l ess
ud den
Ġm od
ent ial
ĠD o
Ġw ater
Ġv omiting
Ġclo t
Ġsubst ance
Ġ er
Ġdet erm
ĠNI H
Hyp oplasia
R I
a ired
Ġyou n
Ġpl atele
a w
ul th
Ġat axia
oc k
ren al
itu itary
ulth ood
an th
Ġl it
Ġprovid ers
ĠDis ord
ĠT r
ra y
ne a
i x
Ġal cohol
ĠGen eral
l ed
Ġe ither
ac hes
ĠHyp ert
Ġprodu ce
Ġchrom osomes
Ġhyp oplasia
Ġtra ve
Ġc av
os ph
Ġgl and
t o
t on
Ġh ospital
Ġop tions
Ġloc ation
a pe
Ġpres crib
ĠRad iation
Ġunder lying
Ġdifficult y
Ġve in
Ġav oid
Ġrec ur
Ġac ute
P S
ĠO ver
ord in
Ġresp iratory
o le
Ġlab or
arg ed
o cl
ar act
Ġex c
ĠIn f
ĠChe m
Ġm itochond
Ġwh at
Ġinjur y
Ġal low
A S
o ot
Ġl ack
ĠLy mph
Ġfe el
H D
c u
bl as
ĠInt ellectual
Ġte mp
id s
ne um
hy d
umm ary
Ġn utr
ĠA nt
Ġparticular ly
ed i
im ilar
Ġc reat
Ġhorm ones
Ġepis odes
Ġneuro pathy
f unction
Ġthe n
Ġpl ay
Ġact iv
Ġw ide
Ġthrough out
C D
ĠM ore
Ġe l
Ġg reat
st eop
ag ed
Ġspread s
Ġre ct
un ctions
Ġchem ical
osp hat
Ġcle ar
Ġb ro
Ġgl ands
Ġre nal
ĠDia betes
Ġde letion
or ies
Ġmedic ation
al low
er at
id ge
Ġpro f
ul ate
Ġrec urrent
as cular
Ġmet abol
Ġdis rup
Ġen viron
Ġunder st
te b
er ature
it es
Ġhe pat
Ġpl ace
en al
Ġinfect ed
le v
Ġmicros cope
gen esis
lo bin
Ġpro gn
Ġredu ced
Ġappear s
Ġde cre
Ġar thritis
Ġjoint s
ol d
Ġwe bs
Ġclo ts
gen eration
Ġmus cular
Ġf ormation
it us
od actyly
ph a
Ġother s
ĠSe e
l ic
ar k
Ġabnormal ly
Ġs imilar
ib it
Ġad ulthood
ak e
Ġk ill
ide red
Ġmater ial
Ġcont act
Ġcons idered
s h
Ġdi arrhea
Ġprodu ced
ĠInd ividual
ĠDisord ers
Ġwebs ite
Ġth romb
Ġaut oimmune
Ġure th
qu e
Ġantib odies
s ing
Ġ1 5
oid s
Ġrequ ire
ĠChem otherapy
Ġ ult
Ġl ater
Ġb ile
Ġd ays
Ġweek s
od ium
he ter
ch y
kin son
y le
Ġn arrow
os ure
al ing
Ġprov ide
tens ion
ĠIndividual s
g o
ut aneous
Ġresult ing
Ġre le
ail s
Ġb est
Ġre pe
ig ue
Ġr ate
Ġgast ro
Ġbab y
Ġch o
Ġrad io
Ġm at
ĠUn ited
ĠAm eric
lo ok
Ġproced ures
Ġcor onary
ĠSe izures
Ġ What
Ġm otor
ip her
i asis
at s
ipher al
Ġn ame
eop l
Ġthough t
Ġex act
Ġp oor
Ġe as
ĠC ereb
Ġpat h
em a
Ġattack s
Ġval ve
Ġun clear
u ven
in ess
Ġp igment
ent ion
Ġbe havior
se al
uven ile
Ġha pp
Ġtest ed
t le
us ion
Ġresp ons
ĠCo gnitive
blas toma
r ine
Ġw ors
Ġantib iotic
rom atosis
i as
Ġinvol ve
M utations
b ility
Ġ ul
os a
av ing
oph il
Ġacc um
f ort
Ġsp ine
gress ive
Ġf il
ter m
Ġp rom
ĠW h
iomy opathy
r ich
Ġunt il
Ġcarcin oma
if f
Ġcomp uter
o f
in ing
ap ed
b y
c hes
he im
ĠD ys
ĠSt ates
Ġpict ures
arget ed
c ont
g an
w n
he ad
Ġh our
ĠCh ronic
r yp
ch ing
st ream
reat ening
est yle
r as
en ed
er v
ant ile
ĠRe c
Ġinvol ves
ine mia
Ġwor king
Ġloc ated
s ide
Ġa ppro
phy seal
Ġaddition al
pro du
Ġw ant
ce mia
ĠH ep
Ġpre val
s or
Ġcancer s
Ġfing ers
e lo
Ġof f
Ġne ur
Ġcombin ation
re t
iv es
Ġfe eling
ĠChe ck
Ġr ib
ific ation
int estinal
y lo
om es
p id
Ġblood stream
aryn ge
Ġwal king
Ġenl arged
Ġre p
athy roid
ing le
ile psy
Ġ3 0
b or
el f
Ġinh ibit
Ġinj ect
Ġs udden
on ger
ĠP er
er ate
Ġp en
Ġp el
Ġn ow
Ġcat heter
D L
m it
Ġsur v
Ġcl ass
t osis
gen ase
Ġo ste
Ġto x
oc al
ron ch
og ly
Ġpreval ence
Ġb orn
Ġint ra
Ġcar ri
Ġamount s
Ġbegin s
Ġbuild up
Ġstruct ures
Ġd est
hydro genase
Ġbow el
z heim
ĠD ep
Ġdevelopment al
ak ing
Ġr ange
Ġl onger
Ġtreat ing
ĠR ed
ac ro
u ble
Ġf unctions
Ġsw allow
g ical
w hat
Ġd rink
Ġrel ieve
r ing
ĠO n
Ġp ulmonary
Ġst ages
ac c
Ġp red
Ġw all
Ġe at
Ġad renal
Ġhyp otonia
Ġsur f
A R
Ġa st
Ġp ituitary
Ġmeas ure
' re
Ġs in
om al
ĠF amil
Ġey el
Ġest im
Ġte chn
Ġsa fe
Ġprogn osis
c he
u ber
Ġst ool
Ġde hydrogenase
Ġmal ignant
Ġexp osure
ce pt
is es
ĠT ype
od g
Ġab le
Ġne ph
Ġbr idge
Ġcent ral
r ip
Ġf et
Ġe vent
Ġrece pt
arynge al
1 1
Ġs ound
um b
ĠD uring
Ġex cess
ĠR enal
Ġop en
odg kin
ĠC O
ause a
Ġcontin ue
Ġor al
Ġl act
Ġcont ract
Ġwor ld
rh osis
Ġmemb ran
Ġm uc
ĠAl zheim
Ġbal ance
or ad
Ġob es
Ġt om
ĠC T
Ġprof ess
Ġh al
ce p
Ġmus t
Ġrese arc
ĠNeuro logical
or rh
Ġp neum
Ġl es
ĠHyp oplasia
o ve
se ud
Ġins uf
Ġbet a
ĠChild hood
m us
r ies
ĠM ult
Ġgen ital
Ġem b
Ġresearc hers
os cop
Ġre as
ĠPh ysical
Ġproper ly
ĠRec urrent
u cc
Ġs arcoma
Ġcon f
im al
p ress
Ġd ry
Ġh arm
Ġex ternal
cre as
ĠAb out
Ġestim ated
Ġdoct ors
Ġco ordin
Ġt imes
Ġm iss
Ġst iff
Ġcav ity
Ġprodu cts
ons et
Ġslow ly
c al
m in
Ġs odium
Ġh ome
Ġfrequent ly
it ting
ar ge
Ġqu ick
Ġhepat itis
G F
ro uble
Ġra pid
Ġins ert
k en
s uch
Ġm ill
Ġh ip
ph thal
Ġbreat h
Ġdifficult ies
at eral
Ġrespons ible
on se
Ġcont rib
Ġclo se
ĠT um
Ġde v
Ġstud ied
Ġtom ography
Ġth ick
os es
ĠAd ult
Ġpro l
ĠL im
ĠI m
Ġinject ed
Ġs l
le en
ar f
ĠA fter
Ġhour s
Ġinsuf ficiency
in ent
ocyt osis
Ġul cer
ar p
ar s
Ġv iew
ĠF e
we ight
d ys
le gia
im et
ĠL ung
Ġresp onse
v is
Ġl ate
Ġfollow ed
amp les
elan oma
c ancer
Ġto p
ĠA L
el or
th reatening
Ġde c
Ġimp aired
Ġstruct ure
Ġnear by
e x
Ġm ach
Ġso ft
cul es
Ġsk ull
lev ated
l er
Ġb ul
ĠC le
Ġreg ular
g ra
Ġf oot
dition al
row th
Ġo wn
Ġc ra
ir m
ĠP oly
Ġant i
Ġdelay ed
or ine
ent s
Ġlim bs
Ġmole cules
C T
ul a
Ġfat s
Ġfat igue
Ġdu ct
Ġnum b
Ġsp leen
ĠW he
Ġvar ies
a it
iz ation
Ġlif estyle
e y
g lobin
Ġc ough
Ġl ay
ne al
ĠMus cular
E R
ar se
Ġsign als
ear ing
Ġrecommend ed
Ġse ction
ĠR et
Ġout look
Ġperiod s
Ġreco very
or ph
nd actyly
ĠH aving
Ġag ain
an c
Ġben ign
Ġrect um
Ġl ive
hy l
Ġout side
vic es
h ma
ar ily
ter ior
Ġsup ple
ĠLe uk
est ions
p s
Ġd ialysis
Ġcard iomyopathy
Ġmin eral
a ve
w ide
ĠDe creased
T P
b o
Ġm ental
ol l
qu ired
ocyt es
Ġovar ian
ic s
Ġg ly
Ġle ft
r ical
at ric
Ġthe rap
Ġl ining
Ġdecre ase
Ġc ran
ter s
Ġne cess
Ġcol or
us es
Ġpar alysis
Ġma gn
Ġto get
Ġar m
ĠNe w
Ġplatele ts
Ġtoget her
e f
Ġp op
Ġcon du
pl astic
Ġlear n
Ġto es
iv ing
Ġdevelop s
ag mus
yst agmus
Ġdeterm ine
. )
ro cy
ĠP D
av es
Ġmain tain
Ġm il
ra chy
Ġad oles
Ġal pha
iss ion
ath ic
Ġsus pect
Ġrepl ace
Ġre a
Ġwor se
Ġdirect ly
reg ular
Ġantibiotic s
ment ia
Ġactiv ities
A D
m ost
y th
or osis
Ġw om
oph ag
Ġbec omes
Ġth ro
Ġaffect ing
ast ing
Ġacid s
Ġcyst s
al an
Ġn ode
ra g
Ġcom e
Ġqu estions
ĠDise ases
Ġenviron mental
Ġhal f
Ġde generation
Ġas k
ste ad
fus ion
om er
Ġf ron
Ġd ivid
Ġst ill
Ġdist in
Ġureth ra
Ġe g
ol low
ard ation
Ġpan creas
encephal y
Ġunderst and
Ġc ut
ĠP rimary
Ġlink ed
Ġdigest ive
C H
P D
el in
ĠB ro
Ġneed s
Ġep ilepsy
Ġher nia
Ġnecess ary
N DS
oderm a
it one
ul s
Ġlear ning
Ġyoun g
sh aped
r ive
Ġst ep
Ġeye b
ĠAd ditional
Ġver teb
Ġcomplete ly
m ature
p atic
Ġs un
op enia
ol ated
Ġret ardation
Ġles ions
ro y
roph ic
l l
Ġs ingle
ra b
Ġbe gan
ĠL ong
Ġsur gical
os ing
op ia
ast atic
Ġsmo ke
Ġidentif y
Ġquick ly
Ġ uter
Ġor der
Ġremo val
Ġstart ing
ĠHep at
Ġrecept or
s p
il s
id ence
Ġfat ty
Ġmid dle
Ġsign aling
elay ed
N S
l ase
Ġs m
ĠS kin
Ġgrow ing
Ġdam aged
Ġfore head
elor ism
i ver
o bl
on ad
Ġg ive
Ġme an
Ġdep ression
Ġresp ond
ct ors
Ġdis tal
Ġcurrent ly
Ġfl at
oscop y
g th
r hyth
lin d
Ġmon it
Ġp rim
o ce
w w
Ġ- -
Ġ4 0
L C
f ib
en se
ĠD elayed
hy roid
Ġd iv
Ġst im
erm at
Ġext rem
ĠPar kinson
ail ed
Ġmod erate
Ġf oc
od ys
ys m
Ġsh ape
Ġabs or
Ġmemb ers
Ġmitochond rial
) :
K D
et s
ocy tic
af ness
steop orosis
Ġt rouble
Ġrepe ated
Ġradio active
ras ound
o h
Ġph osph
al ity
as te
Ġtr y
Ġlar ger
Ġlim b
Ġthro at
x iety
Ġ Q
Ġm ig
Ġmach ine
is ing
Ġb i
Ġb ur
ĠS mo
Ġab ove
ody st
ĠPre vent
I D
Ġst or
Ġop ening
entric ular
L A
he um
ĠP l
iv ed
Ġperson s
Ġj ust
Ġdys function
s up
Ġb il
Ġd el
Ġcheck ed
Ġc ould
os cope
Ġen cephal
Ġvar i
unt ary
Ġelect rical
Ġworld wide
in f
Ġs clerosis
Ġp ast
de velop
Ġsurf ace
orine ural
c rip
en osis
Ġf our
it ivity
ard i
Ġcon st
Ġs we
os s
Ġsp astic
Ġcol d
I I
R E
n ostosis
Ġn ight
Ġprote ct
Ġplac ed
Ġhy dro
Ġconf irm
Ġs cre
Ġmal e
Ġvess el
Ġpict ure
Ġhemo globin
Ġt rem
ĠC ont
Ġlabor atory
u lo
in ence
ĠSt roke
Ġexp osed
Ġpregn ant
Ġprofess ional
ĠTum ors
I V
Ġwh ose
ist ance
ĠSe vere
art il
sy ch
lex ia
Ġhem orrh
Ġmiss ing
c ell
Ġph ys
ass ium
Ġunus ual
Ġre fer
ient ists
ĠE ven
Ġad v
Ġpl a
oint s
Ġro t
ortic oster
ĠCle ft
R A
Ġg ood
ie ct
Ġear li
Ġpres ence
obl astic
Ġn u
Ġst enosis
Ġse p
Ġmy elo
Ġrib s
Ġy et
Ġret ina
Ġintest inal
Ġbel ieve
orad ic
artil age
Ġm other
yp h
un ct
ĠF ailure
te in
ens ity
pproximate ly
Ġtrave ls
ĠWh ile
W ho
is hed
Ġm ac
Ġw aves
ĠC at
Ġsign ific
__ __
ĠWhe ther
Ġstor age
Ġp r
Ġd ye
Ġn ausea
ĠC ertain
ĠW il
ie ved
Ġdepend ing
Ġinter fe
Ġfib rosis
Ġcir rhosis
ĠDo ctors
ĠCereb ral
ĠIn formation
Ġpl ays
ĠSt ud
Ġ ess
as ing
ip ation
Ġsur round
Ġappear ance
p ing
Ġt alk
Ġs imp
Ġc enter
er oid
us s
ĠC or
ĠM et
ĠH y
Ġ1 2
ĠW omen
ism us
stru ction
ĠRed u
crip tion
m icro
in ase
Ġin ternal
ĠC ar
ĠM RI
ir d
Ġsh own
Ġmil k
Ġv ag
Ġr ash
Ġ1 8
Ġgastro intestinal
sup ported
er ative
Ġl ump
ail y
Ġfunction al
Ġser ies
man ent
ĠTr ans
Ġess ential
on ance
Ġp y
Ġlo se
Ġfra ct
ogly cemia
ĠFamil ial
1 2
D o
i er
Ġg all
ress ed
Ġve ins
m ic
s c
Ġde creased
Ġper manent
hes ia
Ġloc al
r um
Ġin ner
ĠO ne
Ġk erat
Ġac cep
Ġget s
Ġdet ailed
Ġt one
ren ce
ĠMicro cephaly
u ra
Ġp ur
os in
Ġg erm
ĠE ar
Ġneed le
Ġover weight
Ġwors en
Ġast hma
Ġtherap ies
Ġaccep ting
m y
ur b
ĠC ent
ĠC ell
Ġsp erm
Ġreg ion
Ġg ain
Ġ1 00
Ġcard iac
Ġult rasound
Ġsignific ant
u le
Ġvar iety
Ġtrans port
Ġag es
uc oma
com fort
Ġuter us
A M
ib ility
Ġres onance
Ġshort age
Ġpar ap
xy lase
osphat e
Ġdev ice
p ir
Ġd ie
mp s
ĠB one
iz es
Ġshow s
Ġcor rect
Ġcle ft
Ġpass ed
Ġpneum onia
Ġstiff ness
Ġt ired
Ġa pproximately
ĠH earing
res ia
Ġprescrib e
Ġnutr ition
ĠI s
Ġsp ot
Ġsex ual
Ġswallow ing
Ġv acc
ĠB ut
Ġr un
ĠN o
Ġben ef
odyst rophy
Ġb ronch
Ġd ental
ly tic
im in
ĠNe ph
iop athic
Ġk ne
Ġad en
Ġdist urb
Ġsk ills
itone al
Ġre ach
Ġsal t
t t
el ia
ac he
ap s
Ġj uvenile
Ġdyst onia
Ġlit tle
ĠMult iple
Ġagain st
on atal
an ced
ut ure
Ġde ep
ĠO ste
Ġest rogen
Ġdep os
ven ous
imet ers
rachy dactyly
Ġdistin ctive
Ġprim arily
a e
b r
id ase
ĠSc oliosis
S D
Ġprevent s
Ġprogress ion
Ġ6 0
Ġunus ually
ryp t
Ġd aily
if ied
Ġrel ax
Ġsur ge
Ġret in
Ġantib ody
ĠSp astic
Ġsupple ments
A T
N I
Ġs end
ul es
ocyt openia
Ġref ine
Ġc ort
Ġc artilage
or k
as se
il tr
op ro
Ġle g
oc rine
ond ro
ĠV is
A P
c ence
i res
p os
on us
Ġse em
Ġgroup s
ong ue
Ġneur ons
Ġwom an
rab ismus
d own
Ġs ick
Ġs ucc
Ġli qu
Ġcount ry
la gen
Ġwide ly
er ior
ar th
Ġl ens
als o
Ġexc essive
ĠStud ies
ur ther
ol er
ĠIn creased
Ġheart be
Ġdoes n
Ġfib ers
ĠJ oint
edi ate
ophil ia
S ummary
f lexia
Ġm orph
ab ly
ĠW ide
ĠAl l
Ġfemal e
Ġperform ed
Ġtrig ger
M D
a z
c are
Ġf ull
an ger
Ġth rive
ĠR are
ĠIn fe
Ġac quired
Ġir regular
Ġbro ken
Ġcontrib ute
Ġeyeb row
Ġextrem e
f acial
Ġa x
or al
or ch
it he
Ġg ang
ĠP oints
Ġfe eding
ĠPro gressive
Ġearli er
e ction
Ġ ed
Ġan gi
Ġk ind
ron g
Ġrad i
Ġes ophag
ĠResear ch
Ġsep tal
p us
Ġis olated
id ism
ĠA ut
Ġmet h
Ġinc ont
Ġvis ual
seud o
orch idism
Ġf lex
ic ian
Ġst ren
ĠN arrow
Ġsc al
ĠAn emia
och rom
rin king
Ġbab ies
g ram
olog ic
Ġdest roy
K ey
p tion
Ġ ent
Ġc rit
Ġst ones
ĠF ollow
ĠEar ly
Ġmorph ology
Ġe v
ore d
Ġal ong
ell itus
v ascular
Ġt ongue
pl en
iz z
Ġtemp erature
ĠRedu ced
o es
Ġb odys
Ġj aw
ĠOp tions
Ġclot ting
Ġsurv ive
Ġpla que
in y
or phy
ĠM acro
Ġsm ell
Ġesophag us
Ġp ump
are sis
ĠG I
Ġpot assium
x t
Ġan est
Ġrare ly
kin es
Ġco ver
Ġinflamm atory
Ġinhibit ors
i ber
Ġs cler
Ġs ummary
Ġp ie
Ġf ast
as ms
Ġan us
ĠC D
ĠC ol
ist er
ĠTreatment s
li oma
Ġcor neal
Ġve get
Ġsens ory
asm a
loc ation
Ġpen is
ĠBro ad
Ġm ellitus
if orm
Ġse g
Ġpat ches
Ġpain ful
Ġgo al
E T
l ut
Ġb odies
Ġinf antile
Ġillness es
Ġemb ry
Ġc orticoster
Ġf ight
Ġb o
ĠS pec
ĠS mall
ĠR isk
rypt orchidism
p an
p iratory
Ġs ol
it a
Ġsmall er
reb ellar
los um
Ġlay er
Ġadoles cence
y g
Ġs ure
er atosis
Ġh uman
Ġn eopl
Ġg as
Ġan omal
ol ip
Ġst ay
reat ed
th y
Ġwh y
Ġk inase
Ġapp arent
w ing
ro tic
Ġv ide
Ġsystem s
Ġmain ly
Ġmin utes
Ġmalformation s
at ural
Ġp le
Ġal most
Ġind ic
ĠHe reditary
Ġmetabol ic
Ġrep air
ĠAlzheim ers
Ġf ac
Ġf uture
ĠC HD
Ġfluid s
ĠInt ra
Ġtox ic
E N
a physeal
at oid
ra ine
ur ation
ĠD if
Ġhemo lytic
Ġovar ies
Ġcreat e
iltr um
Ġf al
ro ss
as hes
Ġex pect
ĠN on
cephal us
Ġcal losum
lind ness
ĠSmo king
e ur
l ant
Ġp e
Ġe qu
ĠA f
ĠA lso
ĠP ulmonary
Ġte am
Ġgreat er
Ġre produ
ĠA D
Ġhyp ot
rect al
Ġmonit or
ĠCat aract
i ary
v ious
ĠT argeted
Ġha b
ab les
Ġch ann
our se
Ġep i
Ġdis c
ĠG ast
oc ial
Ġvir al
ĠLeuk emia
Ġincont inence
Ġm ass
Ġas pir
Ġse par
rol if
co gen
Ġacid osis
R T
T o
b es
b ow
m ediate
Ġlit erature
Ġaccum ulation
oler ance
I DS
Ġp ut
Ġsy ndactyly
Ġne ver
ell a
ting u
bor ns
Ġpel vis
uber ty
c on
Ġin ability
Ġth or
ia ble
ĠI g
Ġdis comfort
Ġdis tingu
Ġan xiety
Ġan eur
th ing
ĠD ist
ĠF ood
ang u
Ġcar ries
ĠRes piratory
Ġgra d
Ġobes ity
Ġcoordin ation
m e
ndrom es
Ġper ipheral
Ġinvol untary
Ġreg ulate
Ġcor pus
Ġfet al
Ġsurge on
r ate
he m
Ġc ur
ĠC A
Ġal one
ert ility
Ġprevent ing
Ġinvol ving
oph age
Ġblock s
tr ans
Ġbreak down
Ġmeas ures
anth us
Ġfron t
p ri
Ġs ac
os arcoma
Ġun able
Ġhyper tension
Ġpal m
bl adder
Ġlim ited
Ġreas on
angu age
ophage al
Ġo x
Ġth ings
Ġg u
ĠM e
are d
Ġat resia
opl astic
Ġintest ines
ĠHypert elorism
Ġhapp ens
Ġmembran e
n ic
yp ical
Ġal ways
gen ita
Ġcont ra
Ġim ages
Ġblock age
ĠMus cle
ĠRare ly
at or
Ġp ost
Ġd ensity
ĠS ens
Ġus ual
Ġacc ount
Ġabs ence
ĠAmeric an
Ġcarri er
plen omegaly
Ġcom mun
em ic
ill ary
og ram
Ġir rit
Ġrece ived
Ġcat aract
d ay
o res
at ur
at ch
Ġc ase
lamm atory
Ġdu cts
heum atoid
Ġvide o
o cc
Ġs ch
al asse
Ġp uberty
id iopathic
Ġtra um
ĠAc ute
he alth
Ġp ort
ic les
ĠC ro
ĠInt er
Ġinjur ies
oce le
ĠAf ric
C o
a und
Ġin it
ed s
cy st
Ġcol lagen
Ġallow s
pri ate
l ial
Ġd izz
lo rectal
ĠA g
ass ociated
Ġreg ul
Ġblock ed
at he
Ġs ite
Ġn atural
Ġchemical s
ĠR h
Ġhyp ert
Ġsystem ic
ĠU l
Ġmill ion
ĠVis ual
ch ance
aryn x
Ġcereb ral
Ġmetabol ism
Ġparap legia
Ġd ermat
Ġw a
Ġg um
Ġcon genita
Ġan tic
fic e
Ġret inal
Ġhead aches
ĠEx ternal
ĠC F
ĠM en
Ġop tic
Ġenzym es
Ġcho ice
Ġeas ily
v oid
w ho
ra ys
Ġan k
ang i
Ġpos terior
Ġexam ine
Ġm elanoma
ct omy
ly sis
ĠB re
gen ic
Ġgl omer
Ġair ways
Ġconne ctive
go v
D D
n a
Ġa im
at um
Ġv as
Ġpal sy
Ġinsert ed
hyroid ism
Ġhab its
Ġw alk
ĠT B
ĠD i
up lic
Ġph iltrum
gin a
Ġrele ase
C P
M L
Ġf urther
ly cer
Ġl anguage
st r
am ine
ĠB rachydactyly
Ġres istance
Ġph alan
Ġhyper plasia
Ġnutr ients
edi atric
Ġphalan x
ĠP rom
Ġde afness
Ġch ang
Ġr hyth
Ġinherit s
ĠU T
ĠSt rabismus
Ġcomp on
cont rol
d ose
Ġe mp
Ġon ce
ĠO f
ang iect
Ġprevent ion
Ġatt ach
ĠOp tic
ĠWe ight
ider mo
w he
Ġt erm
Ġt iny
Ġpro b
ĠN ystagmus
Ġshort ness
Ġreprodu ctive
1 3
c ome
re st
ĠI mp
ĠC ran
ĠP ain
ĠG u
ble ms
Ġpoly dactyly
Ġabs ent
Ġremain s
Ġfil ter
Ġreplace ment
Ġabsor b
Ġdepos its
M ar
Ġf ru
Ġdef orm
ath ia
Ġsucc ess
H odgkin
m ann
Ġc ry
Ġde mentia
ver age
ĠL ear
Ġint olerance
Ġsup p
Ġtub es
kines ia
Co A
c ard
Ġt ell
Ġo steoporosis
Ġc ourse
ro d
us e
us ed
Ġn ur
est ational
up s
act ivity
Ġra ise
ĠTh romb
Ġprovid ed
ie f
Ġpos ition
Ġspecial izes
Ġsuggest s
athyroid ism
ĠCont rol
Ġrot ated
C h
R P
S P
Ġf all
ĠT op
tom y
iv al
ac ed
ĠB ab
Ġgo es
Ġmem ory
ĠNI NDS
ple te
ode ficiency
develop ed
ĠHy dro
aund ice
o ice
as er
ut ion
ab sor
Ġnot ice
ĠN ormal
Ġimp er
ĠBe ing
Ġtemp or
al ip
Ġd ark
lo pec
oc iation
ĠAn other
1 0
Ġt aste
Ġan al
ĠC lin
Ġ2 00
Ġcont ro
Ġpop ulation
lopec ia
l ers
Ġ Z
Ġ idiopathic
Ġt argeted
om ic
Ġsome one
arc ot
Ġbacter ial
Ġplac es
Ġdisrup t
Ġheartbe at
S F
Ġt urn
at ories
Ġth umb
if id
Ġprote ctive
Ġpre mature
Ġmo bility
Ġtak es
Ġnew borns
ĠPro blems
Ġem ot
Ġvirus es
arp al
Ġverteb ral
Ġcrit ical
ĠBre ast
B C
Ġs et
om atosis
Ġp sych
ent ly
ong ed
val u
Ġsupport ive
ĠMedic ines
ocl onus
ĠCO L
Ġgall bladder
thy osis
c reat
f f
s w
ĠB le
Ġly s
Ġtrans mit
Ġpar as
Ġyoun ger
hyd ration
Ġrea ction
Ġtraum a
as k
el low
Ġst aging
ĠF ron
ĠIn s
Ġfollow s
ric t
Ġso on
Ġprogress es
Ġqu it
Ġtrem or
Ġimper fect
. "
Ġb lindness
up us
Ġme at
Ġcol itis
Ġar tic
lu x
ind ing
Ġvis it
ĠWith out
oll en
To oth
Mar ie
b etic
Ġc ap
ĠC l
ĠC ryptorchidism
Ġ1 1
Ġhead ache
Ġer yth
Ġdiv ision
Ġrefer red
Ġveget ables
ĠH odgkin
Ġv ascular
Ġsens ation
Ġcombin ed
Ġbehavior al
Ġflat ten
e z
i ans
Ġre ad
Ġre port
Ġe levated
ĠS keletal
ĠP art
ant ar
Ġsh ock
Ġincre asing
Ġlabor atories
Ġsin us
Ġimperfect a
Ġd il
el d
ab d
Ġexamin ation
Ġar rhyth
Ġmet astatic
cin osis
Ġsal iv
Ġmitochond ria
Ġcarri ers
Ġgenital ia
phthal mia
ĠProm inent
w ork
ĠN ot
lob oma
ĠCro h
m utations
Ġof fice
ĠCh arcot
Ġam ylo
arc in
Ġlim it
Ġharm ful
Ġnumb ness
cyst ic
B S
S T
g rowth
k es
ig ital
Ġhe patic
Ġpar athyroid
Ġfew er
Ġsupport s
Ġfract ures
atur ated
Ġdizz iness
ic es
Ġh is
ig o
Ġfra g
rop athy
Ġpel vic
b ac
i h
Ġs amples
ĠS ch
ut ed
ch an
ĠH DL
ĠF act
Ġsp oradic
iz ing
amp t
Ġcent imeters
lob ulin
Ġwal ls
Ġsuspect ed
Ġliqu id
Ġanest hesia
C N
m b
Ġa ort
is on
is ol
Ġd ose
Ġd oses
ph ar
ph rag
ound s
Ġform ed
Ġbuild ing
Ġstep s
Ġscre ening
Ġinterfe re
x imal
Ġe ct
ĠB l
the mia
c hed
Ġs ocial
ra e
ia betes
Ġcon ver
Ġme chan
Ġcontro ls
Ġw ould
lo red
Ġsy ndromes
ĠP ost
ĠE ach
ord s
ĠL ess
Ġt ip
ĠH IV
ĠB et
ib ular
ĠN eopl
Ġun control
Ġsevere ly
hyp er
igment ation
Ġprescrib ed
Ġvacc ine
angiect asia
phrag m
B B
e g
f at
g u
m ias
Ġth alasse
Ġg ot
erg ency
Ġspe ct
Ġhapp en
Ġeg gs
ĠPrevent ion
uplic ation
Ġaort a
re flexia
Ġf ist
Ġh um
Ġn ons
Ġne ut
ten d
ĠL oss
Ġcontain s
Ġplatele t
Ġrecur ring
ĠIm mun
Ġa ortic
us hing
ĠC ard
arr ing
health y
ampt odactyly
Ġf usion
ĠP al
Ġal ter
Ġrisk s
ĠAb s
Ġsecond ary
Ġsc ans
Ġfunction ing
Ġreg ions
Ġend omet
Ġpan creat
ĠDep ressed
Ġevent ually
I n
M I
p inal
Ġd rinking
ĠI r
Ġdis se
Ġan g
Ġv oice
Ġra y
Ġpos itive
Ġbreat he
los a
ĠMedic are
Ġenl arge
ocl onal
Ġseg ment
J D
L S
P P
c ar
is is
Ġf ung
Ġto oth
ĠA R
ver se
Ġ1 4
Ġfind ing
Ġdiet ary
Ġlink s
Ġpot ential
ĠOn ce
Ġspot s
Ġstren gth
ĠSens orineural
Ġprob ably
K G
L D
g es
Ġ 0
is ions
le t
ol ar
Ġall erg
ĠU rin
opl antar
ĠDe velop
Ġspect rum
Ġin stead
Ġb ru
Ġpart ial
Ġel imin
Ġel bow
M T
b orn
Ġo ld
Ġd rop
ĠH orm
ac es
Ġ7 5
Ġcal ories
Ġintra venous
Ġepi ph
Ġt rain
Ġa w
el ls
ĠS LC
yp es
Ġst e
Ġad j
ros clerosis
Ġsus cept
Ġvitamin s
go ing
Ġpath ologist
arth ria
rolif erative
l ip
at in
Ġe valu
Ġan sw
ĠM E
ls e
Ġne v
Ġcancer ous
ĠF ever
ĠE nd
Ġrel ative
yst onia
Ġap nea
pat ient
ĠCom mon
utr ition
Ġmat uration
Ġtechn ician
b ing
h and
Ġa ch
Ġa verage
Ġs ense
Ġb ase
ing les
Ġsy nt
Ġe lse
Ġst er
Ġant ig
Ġcard io
Ġwas te
Ġmagn etic
O X
ro t
Ġto e
if ically
cl ine
Ġcare ful
ĠNI DD
Ġval ves
ĠDist al
ĠNIDD K
al ed
Ġp seudo
ĠS up
ĠS ever
ce rebellar
qu es
ac hed
ib r
Ġ1 3
our ce
ĠV I
ont aneous
Ġser um
Ġcomputer ized
GF R
Ġvag ina
absor ption
a h
n it
on y
Ġd rain
are s
olog ical
Ġremo ves
ĠInstit utes
Ġdisrup ts
b one
y ot
Ġp orphy
ar thritis
os itis
ch ar
ĠC NS
ĠH ave
ist ant
ĠE levated
Ġint ake
ĠTh ick
ub in
fer ase
ĠAt axia
Ġcontract ure
u ous
z en
om atic
Ġan im
ph osph
ĠL DL
Ġ1 7
oc occ
oderm al
Ġgreat ly
Ġmeth od
Ġfru its
tom as
ep end
ert s
Ġgenetic s
Ġout patient
ĠK yph
Ġco gnitive
Ġmet ac
encephal opathy
Ġdivid ed
Ġconst ipation
g el
n ails
in ed
ed ic
ir dle
Ġle ak
ĠG rowth
Ġchrom osomal
uter ine
Ġent ire
a ffected
Ġb ra
Ġis n
ch romatosis
act iv
ys es
Ġdevelop ed
stem ic
Ġco lorectal
Ġcor nea
Ġver m
Ġrele ased
Ġobes e
Ġencephal opathy
Ġdisturb ance
idermo lysis
m al
at her
as ional
ĠA void
Ġhealth care
Ġsc arring
Ġep id
cul itis
Ġreco gn
Ġapp et
Ġtrave l
nit ine
m en
u lop
en ous
om at
Ġf ul
Ġe ch
am ed
Ġv entric
ĠL iver
Ġmem ber
ino cerebellar
ros pinal
Ġmat ter
osa ic
rich osis
Ġmig raine
Ġbenef it
ĠT ra
Ġe f
ĠM on
ĠHyp oplastic
ran ial
Ġend ocrine
Ġhem at
Ġhemo chromatosis
Ġappro priate
Ġtechn i
phthal m
Ġscal p
l or
Ġf iber
Ġw r
ot e
Ġfor ward
Ġhyp oglycemia
Ġro ut
Ġqu ality
Ġspecial ist
Ġurin ation
Ġref ers
ios y
ĠAmeric ans
whe re
ĠUrin ary
ĠSever al
Ġappet ite
p re
ig id
el ated
Ġsymptom atic
lop ian
Ġdia phragm
Ġcont amin
Ġun affected
Ġprodu cing
Ġco loboma
Ġinc idence
Ġremain ing
cu lo
ĠPD Q
Ġcorticoster oids
ĠGast ro
P A
g ers
Ġc erv
Ġb ed
ic anthus
Ġhe re
Ġde g
Ġch am
Ġr heumatoid
Ġly mp
Ġem ergency
Ġrequ ires
ĠWe b
Ġmembran es
Ġbul losa
Ġgly cogen
. ,
T R
ĠH ist
Ġsp ace
Ġ1 9
ĠHyp ot
ĠCh anges
de letion
Ġbuild s
hyp otonia
Ġlact ose
Ġreas ons
n atal
p al
p ed
en ign
Ġcon cent
Ġper itoneal
ell um
Ġsc ar
Ġsup press
ont ia
iple gia
ĠDiagn osis
Ġcyst ic
fus e
sor iasis
Ġsimp le
Ġansw er
Y our
d ominal
m ission
s ens
ar i
Ġg ait
el angiectasia
rom a
ur g
ĠC yst
Ġst ored
ist ent
ac char
Ġsp ond
Ġac ross
Ġmy elin
Ġgl ut
Ġsw ollen
Ġspecial ized
Ġcle an
Ġrest ore
oster one
ĠInf ants
Ġmyelo id
osin ophil
c utaneous
k eratosis
n ers
Ġc r
ct ed
Ġn ail
Ġl upus
ut ation
Ġch or
oly tic
Ġbegin ning
Ġstart ed
Ġimmun odeficiency
ĠAlzheim er
cancer ous
Ġpie ce
a ph
b um
b ral
Ġf lo
Ġto day
ĠP tosis
pe bral
ĠF acial
Ġ2 2
log ist
ens ion
ĠU s
Ġfat al
ocy toma
Ġacid emia
Ġcereb ellum
Ġtransplant ation
ĠAfric an
ĠFron tal
M RI
P V
a u
g ed
t ime
is omy
ig are
Ġl ine
ot id
Ġhe av
ndrom ic
Ġv ul
ight ly
Ġpl asma
og onad
ax ial
Ġatt ention
Ġfore ign
Ġinhibit or
inf lammatory
he t
Ġs itu
Ġth ym
op ic
ĠS ub
Ġy ellow
Ġpre vious
Ġmild er
Ġclear ly
ĠClin odactyly
L E
f ree
g lut
i ocytosis
v ate
at ives
Ġc e
Ġp ub
Ġf iss
Ġb ot
Ġd ent
lo t
Ġg ran
Ġl iving
cl usion
pl ain
Ġreg ulation
Ġob tain
ĠPer ipheral
Ġgly c
Ġgrad ually
Ġgot ten
w h
ĠS M
ul ations
Ġinf l
end ing
Ġmy el
Ġso res
Ġits elf
Ġob struction
Ġcereb rospinal
Ġbro ad
Ġrhyth m
Ġrout ine
a ucoma
r isk
at a
ve red
ĠT w
et y
Ġl aser
Ġde vices
up t
ĠF A
Ġwho le
Ġfol d
Ġpain less
Ġgrow s
Ġgl aucoma
Ġsens itivity
ĠJ uvenile
ĠInf antile
Ġeyel ids
Ġsurround ing
Ġkind s
Ġchang ed
Ġemot ional
f or
Ġ z
as ter
Ġn od
il le
un k
Ġne onatal
ĠAb dominal
cu le
Ġfoc uses
alip es
f ind
r ied
Ġb os
Ġh old
ĠD iet
Ġinf lu
Ġlymph ocytes
ĠOther s
Ġcons ider
ĠChe st
hydro xylase
Ġref lux
Ġver s
Ġlast s
Ġrecur red
AS H
Ġunderst ood
Ġmuc us
Ġeg g
Ġflex ible
Ġdistingu ished
M ost
ic ation
Ġst rong
ect us
Ġinj ection
Ġcl ick
Ġbreak s
Ġfinger nails
Ġrequ ired
ĠCom bin
ĠAr ter
Ġview ed
Ġdivid ing
ĠLear n
arcin oma
c ious
o i
o arthritis
he tic
Ġc il
Ġg estational
el ic
ĠE KG
Ġgiv ing
Ġcereb ellar
Ġprom inent
Ġprol onged
ars al
ĠHepat omegaly
Ġthalasse mia
Ġbos sing
d y
o encephalopathy
Ġd uplication
qu am
ĠB oth
ap se
Ġmicro deletion
Ġfet us
H e
j ect
l and
o genesis
s ia
Ġs arc
or ter
ar in
fe rence
ĠP H
ir s
Ġsp asms
ru vate
Ġcontrol ling
abil ities
Ġhemorrh age
Ġnu clear
gu inal
Ġmetac arpal
b al
d ia
t ype
ĠT alipes
ĠP O
ud ing
ast hen
ne ur
oc ular
Ġwork s
Ġmole cule
par athyroidism
Ġcort isol
Ġev idence
ĠNormal ly
Ġful ly
iosy nostosis
quam ous
Ġo bs
ast es
ĠTh in
Ġhelp ful
Ġperson al
Ġover growth
ĠLow er
min ist
ĠAdult s
Ġlump s
Ġkerat oderma
Ġposterior ly
t ra
Ġs itting
Ġin te
Ġdis location
aus es
ĠG ra
ĠE h
oc ard
ĠV er
ĠApproximate ly
Ġret r
Ġpattern s
Ġfib r
rem ature
Ġelect ro
Ġnu cle
bes ity
Ġcompon ent
Ġt et
on omic
ĠS w
Ġan alysis
ĠC amptodactyly
all ed
ĠO cc
ĠB i
ich o
ag ia
Ġdys ostosis
Ġam ino
Ġag ents
Ġstart s
ĠSc ientists
ĠMal ar
ĠOf ten
Ġanim als
H L
i vers
en ergy
Ġp age
it er
Ġe th
Ġl ax
ĠS CA
Ġne ural
Ġ7 0
ĠW ol
Ġmet hyl
ino blastoma
Ġeyel ashes
ĠLim b
Ġunderstand ing
Ġtempor ary
a j
Ġt ear
Ġth ird
Ġan gina
ad en
ĠG ait
pl ace
Ġ1 6
mo id
read y
row n
Ġtra its
e e
g ing
p tic
re qu
Ġto ward
Ġon c
Ġra ys
Ġal ready
Ġsp ontaneous
ĠV RE
Ġprodu ces
Ġatt ached
Ġtub ular
ĠGeneral ized
Ġclass ified
Ġrapid ly
Ġhip s
Ġrea ctions
Ġkne es
opro te
Ġartic le
ĠNeopl asm
asional ly
N F
O S
en ic
il ical
il ateral
ĠS er
ĠC KD
th ral
ĠF al
ĠG et
Ġass ociation
Ġdet erior
Ġpal pebral
var ian
com ing
Ġtrig lycer
ĠEp icanthus
dys plasia
gra ms
Ġmac ular
Ġaneur ysm
Ġsuccess ful
A G
D NA
g ative
Ġ uro
it ral
ar ic
Ġh ot
od ialysis
ĠC JD
Ġlo st
ag ic
Ġacid uria
Ġtrig gers
Ġunt reated
Ġadv anced
Ġsupp ly
ĠAbs ent
bum in
D H
I C
o y
he patic
al gia
ĠA ppro
ĠS leep
ĠC al
Ġr id
Ġat ypical
Ġarter ios
rect omy
Ġmicro cephaly
Ġinter vent
Ġacc om
Ġke y
Ġdon or
c alled
s ure
is ms
et work
ut ions
ĠP ectus
Ġde le
ĠO besity
iss ue
oly sis
Ġret urn
Ġro of
ĠDrug s
Ġfib ro
ĠHyper tension
ĠMedic ations
Ġcy t
Ġdrink s
Ġulcer s
str ual
M P
e log
p ond
y ria
Ġm ist
ion als
Ġl ice
ĠC an
em al
Ġne xt
Ġhyp oph
ens itivity
ĠV entricular
Ġsens itive
ĠOver view
arf an
Ġstim ul
ĠCent ral
Ġaspir in
Ġendomet rial
Ġretr ieved
/ /
: //
S H
w orm
at ors
Ġc lus
Ġb asal
Ġh tt
id ine
ĠA st
ĠD u
Ġ2 1
Ġform ing
Ġcar b
Ġredu ces
The re
ri end
fus ions
tens ive
Ġflatten ing
C C
D an
R elated
p art
t ia
t DNA
Ġo roph
is ed
is one
Ġp in
Ġm es
Ġm ening
ir ubin
Ġch ances
Ġfind ings
ĠMal ignant
Ġaccum ulate
Ġdisc uss
Ġinit ial
ony ch
H S
Ġin stit
Ġm elan
ĠT aking
il ion
Ġdis abilities
ĠP remature
ĠL i
rain s
Ġunder developed
ox ysm
igest ive
Ġlif et
Ġenviron ment
Ġgastro enter
ĠCereb ellar
Ġseem s
Ġchann els
Ġsepar ate
Ġverm ilion
oxysm al
p it
r ance
t es
Ġs ides
en e
Ġin st
us h
Ġh all
ou n
ĠC enter
Ġhe ter
Ġse qu
Ġv ol
ĠB MI
ore a
ore t
Ġlist ing
and om
ach y
Ġover all
Ġredu ction
Ġcontrol led
Ġdiet it
Ġpath way
ĠCroh n
ĠTw o
a cy
b est
v ature
Ġm g
Ġw astes
ch ol
Ġon going
Ġcel iac
ĠB rain
ĠN er
Ġ2 4
ĠU nd
Ġj o
Ġpres cription
Ġreco ver
ĠAr thritis
ĠIntra uterine
Ġfal lopian
Ġgum s
N e
x ia
Ġm ot
Ġcan al
Ġde hydration
am ide
ĠD igestive
ĠO l
Ġfre e
Ġr ing
Ġit ching
erm al
Ġredu cing
gress ion
Ġgrowth s
ath ies
Ġspecial ists
Ġure ter
ĠLymph oma
Ġsignificant ly
ĠInfe ctions
Ġhypot hyroidism
2 0
T est
n ar
t ies
y ros
Ġg r
ĠA ss
Ġhe ight
ĠH er
ac ic
Ġr andom
Ġim mediate
ap os
hed ema
Ġcharacteristic s
Ġureth ral
Ġpigment ation
ĠLim itation
ĠQ u
Ġpur p
Ġhtt p
Dan los
o e
at axia
Ġs elf
Ġp hen
ic le
os yl
Ġpro gram
Ġst ate
th yroid
Ġat he
ill ed
Ġgro in
Ġpre c
ĠU se
Ġcar bo
ĠHe ad
ĠEx amples
ĠMy elo
Ġnumb ers
ĠHorm one
Ġlifet ime
c i
n el
Ġ ich
Ġa ud
Ġf ive
Ġm osaic
ur red
ĠS te
Ġdis co
ĠO varian
ĠF l
du ced
mo bility
Ġweak ened
Ġmen strual
Ġexperi en
kele ton
Ġair way
Ġtend s
Ġevery one
Ġcontain ing
ĠHydro cephalus
R D
Ġf riend
it amin
Ġm is
Ġd anger
Ġw asting
ĠT e
ĠA ct
ĠS ur
ĠS plenomegaly
Ġan terior
ĠM itochond
est ig
ĠE ye
Ġal bumin
ip ple
Ġph ot
Ġur ic
port ion
Ġremo ving
Ġimpair s
Ġro d
Ġmen op
ĠSp ond
ĠPar as
Ġcy cle
ĠMacro cephaly
Ġcur vature
card ia
T S
e ep
he pat
Ġo per
Ġd op
Ġbe am
ĠM arfan
ph agia
Ġr ub
Ġr ule
Ġsh ingles
Ġche ek
oid osis
com plete
Ġdetect ed
Ġult imate
Ġclass ic
ĠDi arrhea
bac co
Ġheav y
Ġarterios us
8 00
H F
a ult
l ation
en ess
en gth
Ġm ark
ro g
Ġh o
ur ance
ĠP ET
ĠH ospital
ĠN or
Ġser vices
Ġend s
Ġend oscope
Ġavoid ing
ĠFe eding
Ġverteb rae
Ġcontamin ated
X X
Ġo d
Ġo ss
Ġp ediatric
mp ing
Ġl ig
ot rop
act ic
Ġr upt
Ġmost ly
co ordin
ĠSp arse
Ġ8 0
Ġappro ved
Ġretin opathy
ĠInfe ction
ĠIns ulin
D A
c ount
c ranial
om nia
Ġm ature
ĠA IDS
ĠD ry
Ġtr isomy
ĠE E
one ph
ĠCh ol
Ġsc ientists
Ġqu itting
io facial
Ġend ed
Ġpoly ps
Ġmin or
Ġval g
Ġperform s
Ġthin king
Ġtop ic
Ġcra mps
Ġcran ial
uls es
Ġvari ant
NI NDS
Ġnev us
p el
Ġt ing
Ġc re
ing ton
Ġh om
Ġor ig
Ġare n
rom as
ĠC H
gn etic
ĠE ct
ĠL ip
mph al
Ġmo ving
Ġph ase
oid es
Ġsc oliosis
cop ic
Ġcons cious
ĠRet inal
Ġanomal ies
Ġwa ist
Ġank les
Ġemp ty
Ġfrag ile
Ġuncontrol led
ĠEh lers
T reatment
Ġo ur
Ġs ons
Ġsy nostosis
ĠC ushing
Ġinf ant
Ġtr unk
ĠG l
Ġgiv es
Ġexp erts
CA T
Ġcalc ification
la ucoma
Ġphosph or
ĠCor onary
Ġkne e
Ġcover ing
Ġfist ula
Ġelimin ate
ĠKyph osis
ĠParas ites
c aus
ĠT et
Ġsy n
um ab
Ġam yot
ĠPro tein
Ġgo als
ĠSp inal
Ġcir c
arf arin
Ġduct us
ĠCent ers
ĠAut oimmune
Ġantic ancer
ez ing
igid ity
b ers
or i
Ġb ar
Ġd ra
Ġn ares
Ġl ives
ĠL CH
Ġtest es
Ġpl us
Ġout er
Ġcomp uted
ĠK apos
ĠK eep
Ġany thing
oly s
Ġlip s
Ġstop s
Ġaut onomic
Ġcomple ment
Ġdescrib es
Ġbur ning
ĠDif ferent
oi etic
c or
h ind
m ur
Ġ ions
Ġs ent
Ġc lu
Ġto en
fe ren
ĠP R
age ment
ys ms
Ġact ually
Ġprocess es
Ġ6 5
ino gen
anc reat
fib romatosis
ĠCD C
ĠBle phar
epend ent
Ġtechni ques
Ġdietit ian
1 7
in uria
Ġp unct
lo ss
Ġe osinophil
ĠA tr
am ic
hat ic
ect omy
Ġgeneral ized
Ġcho ose
Ġsl ightly
ĠAdditional ly
Ġgang l
Ġdil ated
Ġaccom pan
Ġultimate ly
count er
u cop
u clear
y ing
Ġb ath
lo ad
Ġl ateral
Ġst ret
ĠO lder
ag ulation
Ġcell ular
ru ction
Ġph osphate
Ġep ithe
Ġspe ak
rop enia
ob ia
ĠHypert onia
Ġthromb ocytopenia
Ġdeform ities
Ġpancreat ic
best os
Test s
Ġathe rosclerosis
Ġmenop ause
p osis
p igmentation
Ġc utaneous
Ġn etwork
os up
os idosis
Ġbe hind
Ġcon fusion
ĠR o
Ġtrans fusions
Ġatt aches
ĠAs k
Ġurin ate
led ge
Ġbil irubin
Ġembry onic
ifid a
ĠGastro intestinal
ogonad ism
wh ich
Ġdeterior ation
onych ia
olys acchar
ucop olysacchar
Ġt un
on an
Ġp oint
Ġm ix
Ġw arm
ra chn
ĠS in
Ġpro grams
Ġan imal
Ġhe at
ĠM PS
Ġde cline
ĠO ral
ous e
Ġvar iable
ever ted
Ġret ention
iod ine
Ġref lex
ĠAt t
Ġrect al
Ġnarrow ing
Ġstool s
ĠCO PD
dys plastic
ĠHepat itis
abd omy
minist ration
Ġting ling
ĠKapos i
A L
Ġ rol
in opathy
Ġs ix
Ġs ource
om elic
ia bility
Ġpro st
am el
ge red
Ġse pt
ĠB ow
Ġstudy ing
Ġneed les
Ġim age
Ġj aundice
air y
Ġsub un
ym met
pt osis
ĠAr rhyth
Ġast rocy
gra de
Ġradi ologist
Ġamylo idosis
g ic
l it
u rom
â Ģ
Ġf ain
Ġb ind
ing er
ur mur
ĠP es
am es
ĠD own
up ational
ber t
Ġdiagn osing
bet a
Ġfat hers
Ġ3 3
Ġret inoblastoma
Ġstruct ural
Ġtrig gered
Ġer up
ocl onic
produ cing
Ġanomal y
C E
v o
in ic
re ak
Ġp soriasis
ar ies
ent ially
id us
ĠS CD
Ġne c
ĠG M
ĠE wing
ag et
Ġtrans mission
Ġfat her
ĠInt estinal
ĠMan agement
Ġstop ping
Ġoste ochond
Ġpop ulations
Ġsaliv ary
ĠUnd er
B arr
Ġo phthalm
ĠT issue
Ġn ails
Ġor th
ĠA TP
ĠC y
ak en
Ġwe ar
Ġen amel
Ġuse ful
ĠCh o
ĠPro state
ĠMy opia
Ġcent ers
ĠDys arthria
Ġsurv ival
ĠFamil y
Ġmineral s
Ġporphy ria
b i
u v
Ġs aturated
Ġr h
ĠF at
Ġrec ent
Ġpre p
arc ole
ran ch
ĠSe cond
Ġcons um
alk er
Ġinc ision
Ġknow ledge
ĠAnt everted
Ġeas y
Ġstim ulation
Ġgang li
Ġed ema
Ġconscious ness
A n
C L
R SA
a ments
k al
st ones
ol ic
im ens
ĠP ers
Ġch ick
ĠB y
Ġun less
ok ed
Ġdi ver
Ġdam ages
ri x
ri ers
Ġmult ip
Ġsuggest ed
havior al
lant ed
Ġlys osomes
Ġsuscept ibility
ault y
2 3
e red
k i
r id
re ction
Ġth igh
il ities
id rosis
ĠA lopecia
ur ic
Ġan a
im ot
im osis
ĠM T
ĠP le
Ġde fic
ĠH LA
herit ed
Ġprote cts
Ġup on
og lobulin
Ġneuro blastoma
Ġstand ing
Ġdes ign
Ġgra ms
Ġeas ier
Ġwors ens
ĠOn ly
Ġsin ce
Ġexpect ed
f ac
y ndromic
Ġt arget
Ġd id
as ive
op e
ĠA F
ĠS arcoma
ir rhosis
ist ers
ĠD on
iz ure
Ġchild s
Ġ3 5
Ġep idermolysis
omy cin
lamm ation
Ġeffective ly
Ġperiod ic
hyd ram
Ġinvolve ment
Ġcatheter s
Ġeyel id
Ġindic ate
Ġport ion
ĠUT Is
Ġepiph ysis
ĠCombin ation
A l
M G
T E
b urg
v uls
w arf
Ġo v
Ġin vers
Ġb ifida
ĠA p
Ġl ength
Ġst one
ĠP aget
ist ing
Ġr ather
clud ing
ost asis
log ic
ip idus
Ġcol l
Ġcomp ression
ĠAn y
Ġdys kinesia
Ġap pl
oph imosis
Ġro und
Ġhyper parathyroidism
tr as
Ġrem ission
Ġcough ing
Ġdiv ide
Ġswe ating
Ġcort ical
Ġinte rest
arcole psy
E S
L I
s in
Ġs n
Ġf ash
Ġf aulty
os c
rom at
Ġas ymmet
Ġinf ertility
em ann
ĠG SD
ĠL arge
Ġph al
Ġinv estig
Ġag ing
ĠHyper reflexia
Ġcontin ues
Ġpen et
Ġmaintain ing
ww w
Ġnur se
Ġcham bers
Ġoroph aryngeal
Ġdanger ous
Ġfash ion
' ll
O R
j ur
n ios
u ck
or ing
om ia
Ġm tDNA
Ġg out
rom osome
ĠH unt
cy tic
cy themia
Ġv entricular
Ġcom a
ĠR NA
ĠF irst
ĠN ausea
Ġen c
ag ille
Ġcar otid
Ġblock ers
Ġinstru ment
Ġpot entially
Ġcir cul
Ġlay ers
Ġphys ically
Ġbru ising
Ġster oids
osup press
hydram nios
i atric
k y
Ġs ed
ĠA re
ĠC auses
ol in
ĠP ress
ĠE ating
Ġme al
Ġme als
Ġshould er
ĠNe onatal
Ġhyper mobility
de ficiency
Ġinter act
ĠPat ent
plic ations
Ġbel ieved
Ġhy d
hyd r
Ġsudden ly
Ġtox ins
Ġsound s
Ġvari ations
Ġswe at
Ġcommun ication
Ġglomer ul
Ġcardio vascular
omat ous
Ġfiss ure
Ġsequ ence
thyroid ism
a ugh
m at
n isone
on i
al king
or ax
Ġb as
Ġis che
ou l
Ġre gression
ig ence
ĠA CT
el ves
ĠC Y
ir al
Ġse ek
ad ias
ĠIn coordin
ĠG laucoma
ten ance
ast s
Ġsh rink
ell igence
ĠHealth y
Ġgast ric
ĠCom p
Ġcount ries
ĠAL S
II I
ĠWil ms
ĠNo onan
ĠDevelop mental
Ġonc ologist
ĠMitochond rial
caus ing
warf ism
ĠIncoordin ation
E B
c an
Ġs quamous
Ġc ounseling
Ġthe ms
is p
Ġf und
Ġto uch
od ic
reat ing
Ġse eds
Ġr ise
gn athia
lop roliferative
Ġlo ose
kin s
Ġac et
Ġover active
Ġsc ient
Ġtw ice
Ġacc ess
Ġregular ly
anc omycin
Ġcontra ctions
Ġrupt ure
Ġov ary
ĠPress ure
Ġthems elves
e ctions
r or
t te
w ith
Ġa genesis
Ġm urmur
Ġw id
Ġw rit
Ġto bacco
ĠC urrent
ĠD ystonia
ĠO ut
pec ific
Ġlook s
Ġins ipidus
ran ge
ocy st
form ing
Ġpath ways
Ġneur onal
ĠSpec ial
trans ferase
Ġsch ool
Ġaim ed
Ġarrhyth mias
Ġhum ans
Ġantig en
Ġdiver tic
P T
R CA
l ight
r int
t op
u cle
Ġs ore
al ly
Ġis s
Ġch ain
ĠF inger
ord er
amin o
and ibular
Ġins urance
arg y
Ġchol est
Ġhem angi
af f
af fe
Ġinfect ious
bor ne
het ase
Ġerup tion
Ġphal anges
G H
a ut
k el
in ter
re ot
al act
ct ase
ab l
am er
Ġch in
ĠH ip
ĠO steoporosis
res istant
ĠF ound
ĠSt em
Ġcop per
av atum
ĠAn gi
ĠAl agille
Ġbl ue
bin ism
ĠDe ep
Ġexc avatum
Ġpred iabetes
cep tion
sc ape
Ġtired ness
Ġextreme ly
pit ations
S ee
m utation
v ol
Ġc igare
Ġp ract
Ġm ood
Ġd ro
Ġw ww
et er
ur ns
ut s
ĠI B
ĠM ild
ĠD ental
ph osphate
ate ly
gn osed
ib ly
Ġli e
oc ortic
Ġno vo
ap pear
oth orax
air s
ick ets
Ġbl ister
Ġend othe
Ġcheck ing
ste in
Ġleuk oencephalopathy
ĠEn cephal
ĠEx erc
ĠMicro phthalmia
Ġmaterial s
elin ation
opro tein
Ġvas culitis
ĠImp aired
Ġvers ion
ĠBi ologic
Ġtoen ails
B P
Ġo l
ro kes
ĠT hyroid
ĠA nd
Ġst ick
ĠM a
ĠF GFR
ord osis
Ġdia betic
Ġlook ing
og lobin
osp adias
Ġsmo oth
ĠCon st
ull ary
Ġexerc ises
abol ic
Ġexc ision
Ġadoles cent
Ġbil ateral
Ġbenef its
Ġsend s
Ġchann el
ĠInter nal
ĠUl tras
ĠUT I
ĠThromb ocytopenia
sens itive
place ment
c hea
n ed
r ast
u x
Ġt ick
Ġa plasia
re x
Ġs ul
Ġs ph
Ġf ro
ĠT ur
id al
Ġbe ans
ĠP ituitary
ĠF ib
Ġlo t
Ġper ic
Ġrel ief
Ġvar iability
Ġinv ad
ĠDe ficiency
Ġinter a
ĠCom plications
Ġpoor ly
ret in
cal cinosis
Ġinsert s
Ġulcer ative
ĠWil son
ondro dysplasia
Ġdestroy ed
Ġfac ility
Ġaw are
Ġfold s
asthen ia
osc oliosis
2 2
2 4
C R
d ependent
p es
Ġ iodine
Ġt ask
Ġl ic
Ġst ores
ĠM er
Ġinf usion
Ġab use
Ġdiagn ostic
Ġmy oclonus
Ġacc ident
ĠSp inocerebellar
Ġhem ophilia
Ġpass ing
Ġneph ropathy
Ġnons yndromic
Ġelbow s
Ġscient ific
ĠFound ation
ĠUltras ound
M O
g irdle
j unct
n ih
p oly
in cluding
Ġm ax
ion ic
op a
ĠH irs
ter yg
ine al
iv a
ac ing
ĠB ronch
Ġocc upational
Ġme et
ĠRe ad
Ġdoes nt
Ġcons ists
Ġinc hes
ĠWe ak
Ġsin uses
ondro plasia
Ġscler oderma
Ġneopl asia
mal onic
Ġdop amine
Ġpenet rance
teryg ium
, "
C M
b ar
at us
Ġp up
Ġf ish
Ġb ig
Ġto ol
ĠA ch
ĠM otor
ĠP y
ĠD am
ĠO steop
em b
ĠN utrition
Ġmed ium
oc ardi
ip aresis
ric tion
Ġpal e
ĠDe c
uf f
Ġprocess ing
Ġsens orineural
af ety
vir us
ĠMal es
teb ral
Ġhemorrh agic
micro g
pos ition
ĠFact ors
Ġdeg ree
Ġuro logist
Ġgangl ia
Ġchick en
b ind
d L
i pe
m oplantar
s mall
Ġa ction
ro om
as oph
ĠT S
ou ble
ĠS udden
ĠS ingle
Ġpro p
Ġcon cer
ĠM ain
Ġch lor
ĠH D
Ġcom m
igh ter
Ġme ant
Ġpers istent
Ġadd ed
Ġmain tenance
com mon
Ġkeep ing
ĠPh ot
Ġcreat ine
ĠHep atic
Ġed uc
Ġbo ys
Ġparas ite
Ġinfl amed
Ġcarb on
Ġich thyosis
ĠEE G
B A
Ġs omet
Ġs ources
Ġc ream
it z
ic ip
il ation
Ġl ent
ĠP el
th ird
ir ls
ive ly
Ġsh aped
Ġspec ifically
Ġshould ers
ĠAd d
Ġfem oral
rem or
Ġcy c
Ġmater nal
Ġcontract ures
Ġmean ing
Ġpy ruvate
Ġexpect ancy
ĠMon oclonal
o v
in ct
Ġc amer
Ġf ail
ed ness
ĠI E
st eroid
ĠM ic
ĠP oor
ĠB ar
Ġsh arp
Ġrec ords
ep ithe
ĠBe havioral
Ġcomp ared
Ġop tion
Ġarter ial
Ġir is
Ġnon cancerous
Ġpass es
ĠEx p
Ġexerc ising
Ġbel ly
met astatic
Ġcondu ct
Ġcut is
Ġaspir ation
Ġnotice able
Ġcareful ly
Ġeth nic
Ġiss ues
b il
g ren
i eld
i ari
k ers
s elf
Ġb yp
Ġm ast
Ġd ont
ra xia
id el
ot ens
ĠC a
ĠM Y
ĠP ancreat
Ġas bestos
iv itis
ac ia
ĠB RCA
ĠG H
Ġtest icular
Ġpre natal
Ġperson ality
Ġrel atives
av ir
co lored
ont an
Ġhorm onal
ĠPro ximal
Ġag gressive
ĠAd ministration
Ġpoly posis
aryn g
omal acia
Ġprofess ionals
Ġcondu ction
Ġspastic ity
Ġallerg ic
Ġlymp hatic
Ġgran ul
Ġphosphor us
Ġperic ard
b inding
c osis
h ome
r ig
r ans
at ys
on ism
ic ardi
Ġw arfarin
art s
ĠIn stead
Ġres ol
Ġcont rast
omet aphyseal
Ġmy oclonic
ĠAl cohol
Ġbl isters
Ġqu ant
oster onism
Ġmajor ity
Ġimmun oglobulin
Ġkill ing
Ġpigment osa
ĠPoly cystic
anc oni
Ġinterfe res
Ġwr ist
Ġinflu ence
Ġgastroenter ologist
Ġamyot rophy
otens in
atys pond
' ve
W alker
d osteronism
l ordosis
u ity
re ter
Ġn ystagmus
Ġg erms
ĠA ML
ĠS o
ch ain
ad es
cl ic
ĠB enign
ĠF emal
Ġra ises
Ġsp aced
ep t
ĠSy stem
Ġcar nitine
Ġj u
Ġtrans location
ral og
Ġnew born
Ġte ens
li omas
Ġmet aph
Ġlip id
Ġposs ibly
ob struction
met hyl
ĠAnt ib
ylo ep
Ġcondu cts
Ġwa iting
Ġcry st
Ġect odermal
ĠBet a
Ġrelative ly
ulop athy
Ġcerv ix
ĠFal lot
Ġintervent ion
Ġreflex es
Ġasymmet ry
idel ines
ralog y
b lo
i physeal
es ophageal
an al
op y
op legia
Ġl at
yp ic
ĠG ly
ĠG luc
ost atic
Ġest abl
Ġass ess
Ġany where
ocy te
Ġclo s
Ġdist ress
ĠMy opathy
ĠCo arse
Ġhard er
ĠEp is
Ġneph rotic
Ġfoc us
Ġencephal itis
ĠCor neal
Ġax ial
Ġequ ino
Ġenlarge ment
ĠAct ivity
abdomy osarcoma
steroid al
b reak
f ace
f eld
p en
p ons
Ġp ills
ĠS cre
ul inemia
Ġdis appear
Ġst eroid
ure tic
Ġex tend
Ġne gative
ĠE m
Ġover load
rop oietic
Ġob ject
Ġcomplic ation
Ġrest rict
Ġmicros copic
function al
Ġdecre ases
Ġpred nisone
Ġfract ure
Ġaneur ysms
Ġregul ating
Ġtransmit ted
Ġreport s
ĠAppro ved
Ġtun nel
Ġrol es
S S
g row
o gen
s ol
w ann
Ġa mp
in ations
re en
Ġs il
Ġf ocal
it ory
ve olar
ĠT ry
Ġg rains
Ġl arynx
ĠS j
ĠP KD
Ġas se
Ġas leep
Ġinf est
Ġv ancomycin
ĠB art
ĠE ch
ĠGen u
ok al
erm is
Ġins omnia
oph obia
ĠPro te
Ġred ness
Ġbr ing
rogen esis
ĠPre gn
Ġfeeling s
Ġdev iation
Ġradi us
Ġang les
Ġdrop s
neur ons
Ġtriglycer ides
Ġoper ation
Ġoss ification
ucopolysacchar idosis
Ġprost atic
ĠConst ipation
Ġcomm erc
E E
I A
b irth
p y
Ġa lopecia
he ochrom
Ġs omatic
or ic
Ġp ack
ic ians
Ġand rogen
ĠT ypes
ot in
Ġon to
Ġhe al
ĠH eter
Ġsign al
cl us
are st
ĠR est
ĠR LS
Ġdo ing
amil ial
Ġac uity
ĠV itamin
ass es
Ġclo thing
Ġreg ard
Ġmet ast
Ġbl ack
Ġcons ult
Ġimpro ves
Ġhair line
ox ide
Ġexam s
Ġconne ct
Ġemb ol
onad al
Ġdel ays
____ ____
Ġhypoph osphat
ĠChol esterol
feren ces
ĠBlephar ophimosis
Ġinvers us
ĠScre ening
C on
he st
Ġc it
Ġp ap
ar ia
ĠA cc
rom bin
ut y
Ġex cre
Ġblo ating
Ġal tern
ne uro
ĠL anger
Ġint elligence
Ġtyp ical
ĠBe fore
Ġur g
ri er
Ġinter mediate
Ġspe aking
ĠSp oradic
ann ed
Ġgast ritis
Ġtend er
ĠDep ending
Ġclose ly
Ġbil iary
Ġconfirm ed
Ġvacc ines
pos itive
Ġcataract s
Ġsynt hetase
thral gia
yros ine
Ġfriend s
Ġcheek s
Ġaccompan ied
ĠExerc ise
Ġsph inct
home ostasis
1 4
d ontia
i ant
Ġb asis
Ġw ords
et rosis
ĠA ge
Ġon es
aus al
Ġr idge
ill ation
ip s
Ġimp ulses
Ġdif fuse
ĠV ar
Ġvar ic
Ġtw it
Ġtra chea
ax is
Ġweak en
astic ity
iple gic
ĠAd v
Ġext ent
Ġflow s
var us
ĠAr thralgia
SA ID
Ġimmun osuppress
Ġtry ing
Ġhydro cephalus
ĠTra che
osyl ation
microg yria
Ġequino varus
B G
h ist
y ond
Ġp ay
Ġp terygium
Ġf ontan
ar ms
lo on
ĠA x
Ġon line
ĠC one
ĠC irrhosis
ĠP T
ĠP rol
dition s
Ġv ent
res pons
Ġyour self
ĠE s
ĠRe f
ile ptic
oph thal
Ġcor ner
Ġhyper activity
Ġhem iplegic
ruct ose
Ġob stru
ĠHem iplegia
ĠHem olytic
ash imot
Ġswallow ed
Ġmuc osa
Ġsurround s
Ġsimp lex
micro cephaly
Ġsick le
Ġsac s
Ġglut en
ĠHunt ington
Ġcholest asis
m ine
o kin
Ġp o
an y
el itis
ĠS al
ul itis
st age
ĠM ental
ĠP ot
ĠP ediatric
Ġr igidity
ĠF anconi
ast y
du ctive
ard en
Ġmo ves
ĠCh romosome
Ġneuro logic
ĠDe mentia
ĠEn l
Ġplan us
anth ocytosis
kinson ism
ĠAL L
Ġsol ution
Ġox id
Ġallerg ies
Ġventric les
Ġmyel oma
requ ent
Ġmist aken
Ġblister ing
ĠDam age
N K
o z
is y
ar ning
Ġw ind
el ch
ĠM ig
ĠP A
qu it
Ġex plain
Ġne urom
ĠIn jur
ort ical
ĠE very
Ġoccur ring
ip pl
ĠHyp op
Ġass ist
Ġro om
Ġ4 5
stit ial
Ġgra de
Ġvag inal
NI H
Ġequ ip
ĠUs ually
Ġnucle us
ĠAtr ia
d o
d ing
i ol
o vent
r itation
r hea
Ġs ial
Ġf it
Ġb rown
Ġh GH
ĠT remor
Ġg irls
ĠS T
ĠS low
Ġcon e
ĠC SF
ol a
act in
ac id
pl it
pp ing
ĠV ision
ĠV acc
ĠK RT
sy stemic
uc inations
Ġimprove ment
Ġcard i
los p
Ġdescrib e
ma gnetic
Ġlact ic
Ġlact ate
Ġpr one
br and
olip idosis
Ġthor ax
hem iparesis
Ġhypert rophy
ĠGu ide
Ġmethod s
Ġchor oid
Ġtear s
oprote inemia
Ġheter ot
ĠDec isions
Ġsomet hing
C S
C ertain
I L
P E
e qu
p ox
Ġc ost
Ġc lin
le brand
Ġex h
Ġv ac
Ġr ickets
Ġle thal
Ġal binism
Ġlo sing
end ym
Ġun common
Ġcop e
ĠV entric
Ġco agulation
Ġshort ened
Ġmon oclonal
hydro xy
urn ed
ĠWith in
Ġlast ing
ole mia
ĠWil lebrand
Ġpalm oplantar
ĠCF S
Ġarrhyth mia
Ġtrain ed
ĠME CP
Ġsarc oidosis
elog enous
ĠACT H
Ġinvad ers
m ark
y the
Ġt uber
Ġt elangiectasia
Ġa id
Ġa ids
ĠT ox
Ġbe yond
ĠA B
ĠA icardi
ĠS CN
ul omegaly
ĠP sych
act or
Ġr ates
and y
Ġdif fer
ĠU r
Ġcar pal
Ġunder l
com p
cul ature
Ġure a
oster ior
Ġepis ode
Ġrepe at
Ġdest ruction
Ġneopl asm
Ġregul ates
Ġdisse ction
ĠWol f
Ġinstit utions
ĠFl at
Ġfain ting
Ġcamer a
C HD
L N
M A
in n
Ġin complete
Ġp us
ĠT ake
Ġn ames
op athies
ĠA AT
ĠS m
Ġpro tr
ĠI ch
ĠC ons
Ġst rokes
ĠP neum
ĠH ashimot
cl amp
Ġv on
ak i
ĠG erm
Ġoccur red
Ġen sure
ag ang
ĠU V
ĠU sing
ĠU mb
ĠSt ress
ĠV RSA
unction al
Ġinj ure
ĠCon ductive
Ġnon functional
Ġcav us
ĠAnt erior
Ġhypot ension
ĠVI SA
ĠGra ves
aden opathy
achy cardia
ĠHer nia
grow ing
Ġcommerc ial
ĠVentric ulomegaly
clamp sia
ĠUmb ilical
O D
b ed
c end
p read
Ġo steop
Ġb order
ĠA V
ĠS plit
Ġse cre
ĠR em
hen s
Ġle t
ĠL ate
amin es
Ġpart ially
Ġj er
ocy themia
Ġpar oxysmal
form ed
Ġvit re
ides pread
orad ically
Ġtop ical
Ġsupple ment
yth ing
fib rosis
Ġtrem ors
Ġturn ed
Ġtrain ing
ĠSup port
ĠAvoid ing
ĠHist ory
Ġbas ic
Ġtask s
atyspond yly
respons ive
Ġequip ment
R es
U T
X T
a ur
Ġt ib
at rophy
Ġs keleton
es e
om otor
Ġm ention
ĠA MD
ur t
ut z
se ct
se qu
Ġyou re
ther mia
ac ol
ĠF lex
ĠN F
mon d
ĠL if
iz ers
ag on
Ġcol um
ok ing
Ġmo ist
ĠU rine
Ġrel ie
ĠHyp erm
ĠDia betic
Ġneuro fibromatosis
Ġir ritation
Ġbu mps
Ġexp ress
Ġleuk odystrophy
hyp ert
ider oblastic
Ġdeterm ined
Ġallow ing
Ġprof ound
Ġintra hepatic
Ġmill imeters
Ġsun light
Ġabsor ption
Ġnod ules
ivers ity
ĠArrhyth mia
Ġnec rosis
L e
f illed
i oc
n utrition
o al
o val
o fus
u z
in ine
at i
om elia
Ġb ad
as aki
ct al
ĠT ri
ĠA genesis
Ġpro ximal
ĠM ar
ĠM andibular
ĠP osterior
ab ies
ĠIn guinal
ord ing
ĠN ail
ĠL ab
Ġtest icles
gen etic
olog ists
ang io
ĠIt s
ĠV omiting
Ġtrans fusion
Ġtrans verse
Ġte en
opl asm
Ġcor ners
iet z
pro portion
Ġbal loon
Ġcarcin oid
Ġconne cts
aw asaki
Ġcontrib utes
oh ist
Ġbronch itis
ochrom e
Ġmonitor ing
Ġneut roph
ĠPal moplantar
Ġobs er
Ġmot ion
Ġcre ase
ĠIch thyosis
) ?
6 3
R NA
u h
en ces
Ġm itral
us cular
os us
mp oral
Ġre ar
Ġre tic
op ausal
ia mine
Ġl ines
Ġst ore
ĠM elanoma
Ġex ch
Ġtr i
ten se
imp le
Ġpart icip
ang ular
ond rogenesis
Ġhyp ogonadism
ĠSy n
Ġinj ections
Ġinter pre
Ġslow s
Ġsens ations
Ġx anth
Ġsleep ing
lob ulinemia
ĠMal absorption
ĠHypert rophic
Ġprom pt
Ġcra mping
Ġfron tal
ĠMet abolic
sc oliosis
Ġnutrition al
ĠSpastic ity
Ġax onal
ĠCl ick
lip pel
Ġventric le
a uro
i osis
y ne
y loc
in duced
at uria
Ġs oles
er ob
Ġin tense
Ġf aster
it t
Ġw atch
os mia
Ġre act
Ġbe at
rom elia
Ġst roma
ĠM c
ĠH ol
ac anthocytosis
ĠE D
Ġrec ently
Ġme g
ang ing
ck er
Ġrese ction
ĠThere fore
Ġbl urred
amm a
Ġpal ms
Ġpar an
rect ile
ĠDe afness
ĠCon ditions
ĠLe igh
erv ation
Ġoste oarthritis
umb ar
ĠQ T
Ġdisturb ances
olip id
Ġpalm ar
Ġnur sing
ĠBle eding
Ġech oes
Ġfibro us
oret inal
Ġgr ants
Ġaud itory
ĠRo bin
uv ant
Ġdefic it
Ġendothe lial
Ġadolescent s
2 1
O P
P ar
P eople
S t
V T
m elanoma
an osis
Ġb oun
Ġm ess
rom e
ĠC ow
ĠC utaneous
Ġse lect
art ment
ach ment
ĠPhenot ypic
Ġbut ton
ĠCh ar
ap ar
Ġinv asive
ĠAn ything
Ġredu ctase
Ġstop ped
ĠEx am
igment ed
Ġcontin uous
Ġrepl aced
ĠTum or
ĠPost axial
Ġdiaphragm atic
Ġprevious ly
Ġcil ia
Ġfro zen
cend ed
M E
f en
g t
Ġa tom
he art
Ġs afety
Ġc row
om on
Ġf ar
Ġf um
Ġf ructose
Ġw idespread
Ġh ollow
il iary
Ġst ent
Ġse izure
ter in
ther n
ĠG A
ĠE l
Ġfe ar
Ġtest osterone
oc ell
Ġpart icles
Ġsc rot
ĠAn al
Ġco vered
Ġsub t
de generation
Ġcheck s
ĠLe ber
ract ures
ros arcoma
Ġrepl acing
Ġnarrow ed
Ġprom ote
Ġpneum othorax
Ġmagn et
Ġscre en
Ġmac ula
Ġrun s
Ġsol id
con genital
ĠIg A
Ġirrit ability
Ġdeform ity
Ġpsych iatric
ĠBl adder
Ġtip s
ĠCard iac
Ġconcent r
Ġdent ist
oneph ritis
Ġcirc um
Ġlic hen
ĠMic romelia
heochrom ocytoma
ocell ular
Ġscrot um
A F
F D
F amilial
I P
a id
b urn
f low
h idrosis
i very
Ġ .
Ġt alking
Ġc ate
Ġc ross
er ated
Ġm acro
Ġw arning
ĠT hat
od en
od ontia
ol or
ĠM ake
ĠP r
th argy
ain ing
Ġwe b
ĠTh or
ĠTh ose
ĠTh ree
Ġfol lic
pp er
line mia
fici encies
ong est
Ġact s
Ġwhe elch
sy n
ange al
Ġdefect ive
Ġless en
hyp op
ros encephaly
Ġcreat es
Ġthromb osis
Ġevent s
Ġcran i
Ġaccount s
Ġread ing
activ ation
Ġthym us
dia gnosed
Ġclus ters
ĠWeak ness
Ġquant ity
Ġrear range
F S
I T
P ro
c ardi
i ology
k s
re es
Ġc a
Ġd er
Ġd ust
Ġd airy
Ġd warfism
Ġn arcolepsy
os plenomegaly
ĠA T
ur itus
ĠM ac
se ous
if y
Ġwh ites
ĠH PV
Ġgen eration
ĠD andy
Ġse aled
Ġcom b
iv eness
act ant
ĠB iopsy
Ġtr ue
Ġlo bes
Ġocc ult
ĠW a
and er
Ġme gal
iss encephaly
Ġcar in
Ġtrans cription
Ġcollect s
Ġsur g
omy ositis
ri or
ĠPro ptosis
ox if
Ġhem odialysis
Ġure ters
ĠCom plete
ĠWh ite
Ġappro ach
Ġprol if
Ġpie ces
Ġcorticoster oid
rate g
nic ious
Ġsaliv a
Ġneut ropenia
ococc i
Ġglyc osylation
Ġimmediate ly
1 9
N P
O T
a ppro
c at
e rectomy
p orter
x in
Ġt erat
on ge
an cies
Ġm or
Ġd ouble
ar a
Ġh ouse
Ġn asoph
ly mph
op tosis
Ġbe ating
Ġbe ats
ot s
ot rans
ul ates
ĠC M
Ġst ra
ĠM S
Ġch ondrodysplasia
ĠD ASH
ĠR ight
ac et
ac rim
Ġ5 5
mon ia
ĠTh us
Ġun like
ĠHyp oglycemia
Ġlymph ocytic
Ġprodu ct
ĠK awasaki
och romatosis
Ġlip ofus
Ġpoly cystic
ĠUn iversity
Ġkeep s
Ġbow ing
Ġprogn athia
Ġpred ict
Ġrecept ors
Ġthick ening
Ġfoc used
iect asis
Ġple ural
Ġamylo id
men opausal
ĠCyst ic
Ġpub lic
ĠOcc asionally
Ġorig inal
Ġische mic
Ġsphinct er
SAID s
okin ase
ĠMig raine
ĠLif estyle
Ġsurg ically
G I
H O
I f
c ans
Ġb and
Ġh yst
Ġn ipple
id en
Ġg alact
ith ine
ul lo
res h
ĠF lu
ĠE st
lop rosencephaly
fic ial
du ction
Ġpl asm
Ġpl anned
ĠSy stemic
av or
omen on
li x
Ġhist iocytosis
Ġthere fore
Ġbr ighter
Ġcho ices
ĠPer itoneal
ĠPoly hydramnios
oce rebellar
fib r
heum atic
Ġconst ant
oss ible
Ġmyelo dysplastic
Ġgall stones
ĠMacro tia
Ġple ase
ĠIg M
Ġnatural ly
ĠTop ics
ĠBab y
Ġmechan isms
Ġcil iary
Ġphen omenon
affe ine
ĠTur ner
ĠFemal es
ĠCow den
G A
R e
U R
b ased
d ent
s iness
Ġt ort
in el
Ġo ils
Ġf ine
le c
Ġw et
ĠT reating
Ġn it
ra ction
ĠA ortic
ur ning
ĠS P
st ances
Ġst abil
Ġst rateg
im ab
ĠP CD
ĠH o
ver n
cl ass
ac ification
ĠE lect
ĠL ack
Ġsp oradically
Ġocc asionally
ĠU I
ĠGenetic s
Ġnew ly
ĠAn xiety
fer on
ĠAl pha
ont ocerebellar
Ġso il
Ġmild ly
Ġmen stru
fus ed
Ġbal anced
ĠHypert richosis
Ġcut s
ĠPl atele
Ġdel ivery
Ġphys ician
ĠHy d
Ġretin itis
Ġox idase
Ġcontra ction
Ġsch wann
ĠCran iosynostosis
ĠPart ial
Ġepid ermis
ote mporal
Ġcerv ical
ĠCal c
mphal ocele
rid ox
romat ase
D P
e ous
h our
k a
t ific
es cended
or a
or rhea
Ġin guinal
Ġf asting
le y
ro ys
Ġw ires
as c
ĠT rouble
os te
Ġg irdle
ĠA BC
ith iasis
ĠD yst
Ġv ocal
ĠF ine
Ġle iomy
ĠE MG
Ġwe aring
Ġnot e
Ġad equ
ĠU pper
Ġmal absorption
ĠK lippel
Ġclo uding
Ġexp ression
ram idal
ĠUn like
Ġscan ner
ĠMedic ine
Ġmid face
reg ional
ĠNeph rotic
Ġmechan ism
Ġflo or
ĠVer tebral
ĠAst hma
rachn odactyly
Ġophthalm oplegia
Ġregard ing
ĠFlex ion
c ap
n on
n amic
Ġa ph
Ġo culo
Ġs it
Ġc oc
es ic
Ġp alliative
Ġf er
Ġf used
Ġb lu
Ġre habilitation
rom al
st able
Ġst able
Ġst rain
ĠP et
ak es
ber g
Ġk et
ide press
ĠU ps
Ġact in
Ġtrans loc
Ġhigh ly
opl asty
ax y
Ġsup pl
Ġcl av
rit tle
ĠOp acification
Ġer ythe
ĠAmeric a
Ġdest roys
Ġmuc ous
ĠSpec ifically
Ġadj ust
Ġantig ens
ĠHypot hyroidism
Ġexperien ced
pen is
erob ic
gt hen
Ġcarin atum
tific ial
ĠUps lanted
8 8
N MRI
V D
e loproliferative
f ailure
o blastoma
p ers
p ipe
s pecific
Ġc up
on ate
on tal
it ic
as on
Ġh ole
Ġto ler
ĠT ub
os ine
ra d
ot onic
ĠI BS
th ase
un e
ph ic
all en
ĠB ifid
Ġit chy
ill i
erm a
Ġmal formed
Ġam n
Ġchar ged
ran e
ĠReg ular
Ġshort ly
Ġhyper thyroidism
Ġacc ur
Ġdetect s
iotic s
Ġdigest ion
Ġenter ococci
Ġrecur rence
Ġthromb ophilia
Ġdec ide
oh ns
develop ment
Ġkerat in
ĠBet ween
Ġlymp hedema
Ġmening itis
ĠNer ve
ĠProtein uria
ĠPle ase
ĠCurrent ly
ĠMain tain
ĠPancreat ic
oden um
lec anthus
S igns
d ystonia
m ble
n ithine
y z
he res
Ġs ib
Ġp il
Ġf ield
Ġd r
ig moid
ĠS ide
ut ism
ĠI ron
Ġst ays
ĠP seudo
ĠD ow
em ber
ĠG all
Ġsp ort
ill er
ill ain
ck s
ens ing
Ġcomp ound
ĠK le
ĠK CN
Ġdam aging
Ġhyper keratosis
ĠAs ian
Ġmicro phthalmia
Ġve loc
ĠSp ina
ĠJ e
ĠLe iden
Ġsee ing
ĠRad ial
ĠAt ypical
la pping
Ġdistin ct
Ġstim ulate
Ġgrad ual
Ġconcent ration
ocard itis
Ġmosaic ism
Ġdisco vered
Ġsubun it
Ġmultip lex
ĠOut look
Ġchicken pox
Ġpo ison
Ġlipofus cinosis
L P
d ema
g reg
h ans
l ich
m met
r ung
re mia
Ġs on
Ġp seud
Ġp rior
Ġm m
Ġw rong
us ually
ĠT TP
Ġre ve
id dle
et itive
um e
ch sp
ĠP V
cy l
ĠF OX
ĠIn fect
ĠE as
ĠE ry
Ġprov en
Ġhelp ing
Ġar ise
Ġund escended
Ġtrans ient
ĠK erat
Ġant it
Ġdet achment
ri asis
ĠPro gram
Ġpar kinsonism
io venous
Ġend oscopy
ĠBlo ck
ĠEx tra
Ġpoly cythemia
tens ity
ĠHem odialysis
ĠOp itz
ĠInf lammatory
ĠDep ression
Ġlact ase
Ġcoordin ating
ĠMet aphyseal
ĠTrans plant
Ġlocal ized
ĠOste oarthritis
Ġcompon ents
ĠCard iomyopathy
Ġrecogn ize
Ġpunct ata
Ġepithe lial
ĠSin ce
ĠAtt ack
ocyst inuria
Ġintera ction
Ġbyp ass
reter al
Ġmetaph yses
ĠBart ter
Con genital
Ġsib ling
chsp rung
7 7
B e
m orph
p rint
Ġt all
on in
er yth
om ing
an emia
as culitis
Ġth reatening
od igital
ĠThe n
Ġan n
Ġex tensive
ug s
ug ar
ore flexia
ĠG ing
Ġat rial
ĠE dema
ĠL AM
Ġdif ferences
Ġcomp ounds
ĠCh ori
Ġdi oxide
ĠAn gina
Ġhyper pigmentation
ĠShort ness
Ġdiet s
Ġimpro ved
Ġbreast s
Ġmin im
roph oblastic
Ġaut ism
Ġdu odenum
ĠHem ochromatosis
Ġvis ible
Ġdisrup tion
ryp sin
ĠIm aging
rocy tosis
Ġbi ologic
ĠCar riers
br ile
ĠBl ue
ĠIr regular
ĠUs her
ĠDiet ary
ĠSer vices
Ne w
Ġcircul ating
Ġsul f
endym oma
hens ive
Ġatom s
Ġunlike ly
5 0
A IDS
I LD
Y Y
i ors
r at
Ġt ensing
is hing
Ġp oll
ed ema
Ġm ar
Ġw ounds
mp hedema
ra pe
Ġre view
Ġe t
ĠM ening
ity riasis
Ġk yph
Ġsp arse
Ġsp aces
Ġper ox
Ġdiagn oses
Ġche wing
tic e
Ġsecond hand
Ġspread ing
