{"<pad>":0,"<s>":1,"</s>":2,"<unk>":3,"<mask>":4,"!":5,"\"":6,"#":7,"$":8,"%":9,"&":10,"'":11,"(":12,")":13,"*":14,"+":15,",":16,"-":17,".":18,"/":19,"0":20,"1":21,"2":22,"3":23,"4":24,"5":25,"6":26,"7":27,"8":28,"9":29,":":30,";":31,"<":32,"=":33,">":34,"?":35,"@":36,"A":37,"B":38,"C":39,"D":40,"E":41,"F":42,"G":43,"H":44,"I":45,"J":46,"K":47,"L":48,"M":49,"N":50,"O":51,"P":52,"Q":53,"R":54,"S":55,"T":56,"U":57,"V":58,"W":59,"X":60,"Y":61,"Z":62,"[":63,"\\":64,"]":65,"^":66,"_":67,"`":68,"a":69,"b":70,"c":71,"d":72,"e":73,"f":74,"g":75,"h":76,"i":77,"j":78,"k":79,"l":80,"m":81,"n":82,"o":83,"p":84,"q":85,"r":86,"s":87,"t":88,"u":89,"v":90,"w":91,"x":92,"y":93,"z":94,"{":95,"|":96,"}":97,"~":98,"¡":99,"¢":100,"£":101,"¤":102,"¥":103,"¦":104,"§":105,"¨":106,"©":107,"ª":108,"«":109,"¬":110,"®":111,"¯":112,"°":113,"±":114,"²":115,"³":116,"´":117,"µ":118,"¶":119,"·":120,"¸":121,"¹":122,"º":123,"»":124,"¼":125,"½":126,"¾":127,"¿":128,"À":129,"Á":130,"Â":131,"Ã":132,"Ä":133,"Å":134,"Æ":135,"Ç":136,"È":137,"É":138,"Ê":139,"Ë":140,"Ì":141,"Í":142,"Î":143,"Ï":144,"Ð":145,"Ñ":146,"Ò":147,"Ó":148,"Ô":149,"Õ":150,"Ö":151,"×":152,"Ø":153,"Ù":154,"Ú":155,"Û":156,"Ü":157,"Ý":158,"Þ":159,"ß":160,"à":161,"á":162,"â":163,"ã":164,"ä":165,"å":166,"æ":167,"ç":168,"è":169,"é":170,"ê":171,"ë":172,"ì":173,"í":174,"î":175,"ï":176,"ð":177,"ñ":178,"ò":179,"ó":180,"ô":181,"õ":182,"ö":183,"÷":184,"ø":185,"ù":186,"ú":187,"û":188,"ü":189,"ý":190,"þ":191,"ÿ":192,"Ā":193,"ā":194,"Ă":195,"ă":196,"Ą":197,"ą":198,"Ć":199,"ć":200,"Ĉ":201,"ĉ":202,"Ċ":203,"ċ":204,"Č":205,"č":206,"Ď":207,"ď":208,"Đ":209,"đ":210,"Ē":211,"ē":212,"Ĕ":213,"ĕ":214,"Ė":215,"ė":216,"Ę":217,"ę":218,"Ě":219,"ě":220,"Ĝ":221,"ĝ":222,"Ğ":223,"ğ":224,"Ġ":225,"ġ":226,"Ģ":227,"ģ":228,"Ĥ":229,"ĥ":230,"Ħ":231,"ħ":232,"Ĩ":233,"ĩ":234,"Ī":235,"ī":236,"Ĭ":237,"ĭ":238,"Į":239,"į":240,"İ":241,"ı":242,"Ĳ":243,"ĳ":244,"Ĵ":245,"ĵ":246,"Ķ":247,"ķ":248,"ĸ":249,"Ĺ":250,"ĺ":251,"Ļ":252,"ļ":253,"Ľ":254,"ľ":255,"Ŀ":256,"ŀ":257,"Ł":258,"ł":259,"Ń":260,"Ġt":261,"Ġa":262,"he":263,"in":264,"re":265,"Ġo":266,"at":267,"Ġs":268,"Ġc":269,"on":270,"Ġthe":271,"en":272,"is":273,"al":274,"er":275,"es":276,"Ġof":277,"or":278,"om":279,"Ġin":280,"Ġp":281,"Ġf":282,"an":283,"it":284,"ed":285,"Ġb":286,"Ġm":287,"Ġd":288,"nd":289,"ion":290,"ic":291,"le":292,"ar":293,"ro":294,"Ġw":295,"Ġand":296,"as":297,"ing":298,"ct":299,"us":300,"ent":301,"lo":302,"ve":303,"Ġh":304,"Ġto":305,"Ġis":306,"ĠT":307,"ou":308,"Ġ-":309,"Ġn":310,"Ġth":311,"os":312,"mp":313,"Ġsy":314,"il":315,"Ġor":316,"ra":317,"Ġre":318,"ation":319,"id":320,"ly":321,"Ġe":322,"Ġg":323,"et":324,"op":325,"ig":326,"ia":327,"Ġare":328,"Ġbe":329,"od":330,"ay":331,"Ġ(":332,"ĠThe":333,"ĠA":334,"tom":335,"Ġl":336,"el":337,"orm":338,"rom":339,"ot":340,"mptom":341,"ur":342,"Ġcan":343,"ĠS":344,"ut":345,"ment":346,"ith":347,"um":348,"her":349,"Ġsymptom":350,"Ġwith":351,"Ġpro":352,"Ġthat":353,"ĠI":354,"ul":355,"yp":356,"Ġha":357,"ch":358,"Ġcon":359,"Ġmay":360,"st":361,"fe":362,"Ġon":363,"Ġdis":364,"Ġan":365,"ĠC":366,"Ġfor":367,"ol":368,"Ġhe":369,"ow":370,"Ġst":371,"im":372,"ĠM":373,"reat":374,"ls":375,"est":376,"ĠP":377,"se":378,"Ġy":379,"th":380,"Ġde":381,"ce":382,"ure":383,"ir":384,"Ġhave":385,"ign":386,"ab":387,"eop":388,"ase":389,"if":390,"ud":391,"ition":392,"am":393,"Ġyou":394,"aus":395,"Ġwh":396,"ical":397,"eople":398,"Ġch":399,"Ġas":400,"ĠH":401,"ge":402,"ction":403,"cy":404,"nt":405,"Ġpeople":406,"ist":407,"ver":408,"Ġgen":409,"dition":410,"un":411,"ĠD":412,"Ġsign":413,"Ġtreat":414,"ive":415,"ial":416,"qu":417,"Ġex":418,"Ġse":419,"ess":420,"Ġsymptoms":421,"Ġcondition":422,"Ġus":423,"hat":424,"ter":425,"ual":426,"cer":427,"Ġinf":428,"low":429,"Ġcaus":430,"ad":431,"Ġ?":432,"art":433,"ine":434,"fect":435,"ient":436,"Ġpat":437,"Ġab":438,"ndrom":439,"cl":440,"ies":441,"pe":442,"ph":443,"What":444,"Ġv":445,"ndrome":446,"Ġblo":447,"up":448,"Ġcel":449,"ity":450,"all":451,"Ġcom":452,"ĠO":453,"Ġsyndrome":454,"Ġdise":455,"ormation":456,"Ġfrom":457,"em":458,"Ġne":459,"ate":460,"Ġtreatment":461,"ency":462,"are":463,"ak":464,"ormal":465,"Ġblood":466,"iv":467,"ffect":468,"ary":469,"act":470,"ĠR":471,"ther":472,"ients":473,"res":474,"Ġcancer":475,"ers":476,"Ġdisease":477,"hen":478,"age":479,"osis":480,"ype":481,"ome":482,"ac":483,"Ġby":484,"Ġinformation":485,"Ġfre":486,"ĠB":487,"Ġr":488,"Ġfrequ":489,"ĠF":490,"Ġyour":491,"gn":492,"Ġle":493,"able":494,"ĠIn":495,"ug":496,"ber":497,"ail":498,"ore":499,"Ġpatients":500,"ain":501,"Ġra":502,"ant":503,"te":504,"lso":505,"clud":506,"ort":507,"Ġinclud":508,"Ġtr":509,"igh":510,"Ġalso":511,"ĠG":512,"ated":513,"ans":514,"ys":515,"Ġthese":516,"ult":517,"Ġnum":518,"ten":519,"Ġat":520,"ild":521,"ĠE":522,"Ġwe":523,"Ġal":524,"cc":525,"Ġnumber":526,"ord":527,"Ġnot":528,"ich":529,"ost":530,"Ġthis":531,"uch":532,"Ġk":533,"Ġman":534,"Ġaffect":535,"Ġwho":536,"ib":537,"normal":538,"Ġhow":539,"ations":540,"Ġdo":541,"one":542,"ĠN":543,"Ġfe":544,"lop":545,"Ġres":546,"Ġgene":547,"Ġsigns":548,"ases":549,"Ġcells":550,"Ġdia":551,"Ġ5":552,"ms":553,"rap":554,"Ġ2":555,"Ġlo":556,"Ġfrequency":557,"ast":558,"out":559,"ody":560,"Ġsh":561,"herit":562,"ne":563,"ress":564,"Ġ9":565,"Ġav":566,"Ġinherit":567,"Ġwhich":568,"rapy":569,"Ġother":570,"Ġstud":571,"lin":572,"Ġ90":573,"Ġmed":574,"etic":575,"mon":576,"Ġoften":577,"Ġit":578,"ĠL":579,"log":580,"ailable":581,"Ġavailable":582,"Ġsp":583,"Ġcause":584,"Ġbody":585,"Ġ7":586,"Ġli":587,"Ġone":588,"velop":589,"Ġocc":590,"ous":591,"Ġtest":592,"alth":593,"pl":594,"Ġhas":595,"ature":596,"Ġlist":597,"ĠMed":598,"Ġoccur":599,"ually":600,"ger":601,"ors":602,"ill":603,"iz":604,"Ġtype":605,"Ġdevelop":606,"Ġfra":607,"ance":608,"Ġstudy":609,"Ġ50":610,"Ġcall":611,"hy":612,"Ġper":613,"Ġint":614,"fic":615,"gen":616,"Ġen":617,"du":618,"Ġdisord":619,"Ġgro":620,"Ġcalled":621,"Ġrec":622,"pec":623,"ide":624,"Ġ1":625,").":626,"ight":627,"ose":628,"Ġad":629,"oc":630,"imp":631,"Ġmut":632,"Ġdiagn":633,"Ġfraction":634,"osom":635,"isk":636,"Ġcases":637,"ĠTh":638,"red":639,"Ġrare":640,"amin":641,"ĠW":642,"Ġmore":643,"olog":644,"ble":645,"Ġprov":646,"Ġheart":647,"kin":648,"and":649,"Ġme":650,"Ġhealth":651,"ip":652,"ach":653,"Ġprote":654,"Ġusually":655,"Ġimp":656,"ke":657,"Ġchild":658,"ound":659,"rent":660,"ular":661,"Ġrisk":662,"Ġmany":663,"Ġabout":664,"cre":665,"Ġpart":666,"Ġfol":667,"ivid":668,"Ġinclude":669,"Ġpre":670,"Ġmus":671,"Ġif":672,"ĠRe":673,"mo":674,"ased":675,"Ġtrial":676,"iss":677,"Ġaffected":678,"ugh":679,"ĠGen":680,"linical":681,"ard":682,"Ġdif":683,"Ġcommon":684,"Ġprovid":685,"ag":686,"ang":687,"ry":688,"osomal":689,"ood":690,"rough":691,"uro":692,"ue":693,"ck":694,"ividual":695,"Ġind":696,"ond":697,"Ġfollow":698,"Ġsuch":699,"Ġcont":700,"our":701,"'s":702,"tion":703,"lp":704,"utosomal":705,"Ġche":706,"Ġprotein":707,"ĠIf":708,"Ġspec":709,"ĠThis":710,"Ġtum":711,"Ġhelp":712,"ren":713,"ell":714,"ĠY":715,"own":716,"ie":717,"Ġno":718,"ĠAb":719,"asia":720,"Ġup":721,"),":722,"Ġdisorder":723,"imate":724,"Ġtyp":725,"und":726,"rain":727,"Ġabnormal":728,"Ġproble":729,"Ġclinical":730,"cle":731,"Ġindividual":732,"Ġcell":733,"urger":734,"Ġinherited":735,"ific":736,"ep":737,"urgery":738,"ology":739,"ause":740,"end":741,"pp":742,"ld":743,"Ġfeature":744,"uman":745,"ub":746,"lect":747,"itis":748,"ness":749,"Ġwere":750,"Ġexamin":751,"Ġ25":752,"Ġun":753,"oma":754,"Ġtherapy":755,"amp":756,"ert":757,"Ġcol":758,"tal":759,"ĠFor":760,"line":761,"Ġpl":762,"ory":763,"ĠHuman":764,"Ġform":765,"idne":766,"henot":767,"Ġfollowing":768,"ĠPhenot":769,"Ġlisted":770,"Ġexamined":771,"Ġar":772,"Ġsome":773,"Ġhyp":774,"Ġproblems":775,"Ġtreatments":776,"ces":777,"Ġtiss":778,"Ġthan":779,"vent":780,"Ġfound":781,"ntology":782,"ĠOntology":783,"ĠPhenotype":784,"Ġall":785,"Ġtrials":786,"Ġskin":787,"inal":788,"ok":789,"ĠThese":790,"ĠAbnormal":791,"ence":792,"omet":793,"ctions":794,"phy":795,"cause":796,"lus":797,"Ġmost":798,"ĠSy":799,"ear":800,"Ġoccurs":801,"cent":802,"irst":803,"imes":804,"Ġthey":805,"Ġey":806,"fici":807,"ack":808,"Ġresult":809,"ced":810,"ferent":811,"amil":812,"stem":813,"ile":814,"Ġtheir":815,"Ġbrain":816,"ures":817,"ficiency":818,"Ġuse":819,"Ġmak":820,"Plus":821,"Ġfirst":822,"ĠMedline":823,"ĠMedlinePlus":824,"ens":825,"Ġdoct":826,"Ġpers":827,"Ġmedic":828,"ru":829,"Ġmeans":830,"Ġac":831,"Ġdifferent":832,"lu":833,"Ġindividuals":834,"Ġmutations":835,"Ġbut":836,"mph":837,"ility":838,"other":839,"gh":840,"ss":841,"ough":842,"rug":843,"Ġmedical":844,"athy":845,"essive":846,"ron":847,"Ġmo":848,"Ġkidne":849,"Ġgenetic":850,"Ġperson":851,"ĠTest":852,"Ġneed":853,"ometimes":854,"ample":855,"Ġsystem":856,"Ġcauses":857,"ĠYou":858,"Ġspecific":859,"ĠBe":860,"Ġpercent":861,"ital":862,"ĠIt":863,"anges":864,"Ġinto":865,"Ġinfe":866,"Ġear":867,"Ġused":868,"ĠU":869,"Ġtak":870,"Ġdoctor":871,"Ġfamil":872,"mall":873,"Ġim":874,"Ġpain":875,"Ġeach":876,"ung":877,"ĠAbnormality":878,"mun":879,"Ġly":880,"Ġwill":881,"Ġrel":882,"acter":883,"Ġnormal":884,"Ġph":885,"nown":886,"Ġlead":887,"fter":888,"yst":889,"ĠSt":890,"emia":891,"Ġout":892,"ppro":893,"per":894,"Ġrecessive":895,"Ġautosomal":896,"Ġtumor":897,"Ġcare":898,"Ġgrow":899,"ism":900,"Ġcaused":901,"ĠGenetic":902,"iation":903,"ĠHyp":904,"Ġlow":905,"ious":906,"Ġcomp":907,"Ġcar":908,"Ġmuscle":909,"Ġprovides":910,"Ġfact":911,"Ġdiagnosis":912,"ĠCh":913,"Ġgroup":914,"tic":915,"erm":916,"oid":917,"Ġthrough":918,"Ġcop":919,"Ġrad":920,"vere":921,"Ġanother":922,"Ġdi":923,"ĠV":924,"Ġbased":925,"tern":926,"ap":927,"uring":928,"Ġincre":929,"Ġest":930,"Ġdeficiency":931,"reatment":932,"Ġlook":933,"Ġchanges":934,"ĠSome":935,"Ġbeen":936,"Ġsmall":937,"Ġprevent":938,"ind":939,"Ġwhen":940,"unction":941,"bet":942,"Ġj":943,"int":944,"ong":945,"eral":946,"Ġvar":947,"Ġur":948,"oth":949,"av":950,"ities":951,"cond":952,"Ġinv":953,"ever":954,"ise":955,"Ġact":956,"rol":957,"mptoms":958,"Ġlymph":959,"Ġafter":960,"plasia":961,"Ġtypes":962,"ould":963,"read":964,"Ġner":965,"ĠTreatment":966,"air":967,"Ġloss":968,"Ġund":969,"ĠSymptoms":970,"row":971,"Ġtests":972,"Ġexample":973,"port":974,"Ġhad":975,"igns":976,"betes":977,"Ġprodu":978,"Ġleve":979,"Ġins":980,"ones":981,"Ġbone":982,"Ġsecond":983,"ass":984,"Ġsevere":985,"ĠSigns":986,"ĠBecause":987,"Ġsurgery":988,"ved":989,"How":990,"ount":991,"ace":992,"ime":993,"Ġtrans":994,"Ġinheritance":995,"ĠX":996,"Ġincludes":997,"Ġmal":998,"ically":999,"Ġunder":1000,"ral":1001,"Ġseen":1002,"Ġgenes":1003,"Ġbet":1004,"othe":1005,"Ġwhe":1006,"omen":1007,"king":1008,"Ġhigh":1009,"Ġdevelopment":1010,"ĠSometimes":1011,"Ġover":1012,"Ġdef":1013,"rophy":1014,"ting":1015,"00":1016,"ĠK":1017,"Ġchildren":1018,"pprox":1019,"pproximate":1020,"Ġwor":1021,"Ġtissue":1022,"Ġconditions":1023,"ons":1024,"ays":1025,"Ġsc":1026,"Ġinvol":1027,"icro":1028,"ines":1029,"Ġnew":1030,"Ġlung":1031,"ĠAn":1032,"Ġduring":1033,"omin":1034,"Ġtw":1035,"phal":1036,"ominant":1037,"Ġget":1038,"ized":1039,"Ġspread":1040,"ĠHe":1041,"Ġbelow":1042,"Ġremo":1043,"Ġmanage":1044,"Ġkidney":1045,"Ġdys":1046,"Ġeye":1047,"very":1048,"mia":1049,"Ġam":1050,"otherapy":1051,"ertain":1052,"Ġass":1053,"ick":1054,"Ġdominant":1055,"Ġtotal":1056,"Ġap":1057,"ite":1058,"Ġte":1059,"ric":1060,"Ġmove":1061,"sy":1062,"Ġliver":1063,"Ġcollect":1064,"we":1065,"Ġredu":1066,"ĠOr":1067,"Ġmy":1068,"Ġtime":1069,"Ġfeatures":1070,"Ġany":1071,"ĠMedical":1072,"cies":1073,"Ġchar":1074,"ium":1075,"gress":1076,"ative":1077,"Ġfat":1078,"og":1079,"opl":1080,"Ġant":1081,"Ġtra":1082,"Ġshould":1083,"Ġchrom":1084,"Ġmanagement":1085,"The":1086,"Ġ3":1087,"Ġchem":1088,"Ġpress":1089,"Ġpercentage":1090,"Ġtable":1091,"arch":1092,"oci":1093,"ources":1094,"ĠApproximate":1095,"Ġdrug":1096,"Ġcomes":1097,"PO":1098,"Ġfunction":1099,"Ġdefin":1100,"erms":1101,"ancer":1102,"Ġbre":1103,"ĠPeople":1104,"Ġdep":1105,"ĠEuro":1106,"ĠEurope":1107,"Ġcharacter":1108,"mune":1109,"hes":1110,"ĠOther":1111,"ĠMuch":1112,"encies":1113,"25":1114,"Ġpres":1115,"Ġestimate":1116,"ax":1117,"ociated":1118,"arc":1119,"Ġdat":1120,"when":1121,"opathy":1122,"ĠEuropean":1123,"oint":1124,"Ġtwo":1125,"ions":1126,"Ġradiation":1127,"Ġrese":1128,"Ġfactors":1129,"Ġcollected":1130,"itions":1131,"Ġrough":1132,"Ġterms":1133,"abase":1134,"Ġdatabase":1135,"ating":1136,"iction":1137,"ute":1138,"Ġdam":1139,"ven":1140,"oph":1141,"Ġpressure":1142,"Ġorg":1143,"phan":1144,"Ġdefinitions":1145,"ran":1146,"Ġresources":1147,"HPO":1148,"Ġfrequencies":1149,"phanet":1150,"ĠOrphanet":1151,"Ġfractions":1152,"fer":1153,"ĠDiction":1154,"ĠDictionary":1155,"cess":1156,"ves":1157,"Ġweak":1158,"Ġatt":1159,"Ġshow":1160,"Ġdiabetes":1161,"ĠDia":1162,"Ġimpair":1163,"Ġage":1164,"hood":1165,"ocy":1166,"ivity":1167,"arent":1168,"Ġonly":1169,"ink":1170,"Ġeffect":1171,"ĠReg":1172,"fore":1173,"ĠAl":1174,"istry":1175,"iew":1176,"Ġcertain":1177,"ns":1178,"oly":1179,"ĠHow":1180,"der":1181,"ĠTesting":1182,"pear":1183,"Ġlevels":1184,"Ġsur":1185,"Ġco":1186,"Ġret":1187,"Ġgrowth":1188,"ied":1189,"Ġneuro":1190,"ision":1191,"Ġlike":1192,"Ġsub":1193,"rim":1194,"Ġtypically":1195,"Ġsup":1196,"Ġincluding":1197,"ues":1198,"li":1199,"Ġsever":1200,"les":1201,"ym":1202,"ĠRegistry":1203,"Ġboth":1204,"Ġclo":1205,"Ġro":1206,"Ġep":1207,"ĠSurgery":1208,"ath":1209,"Ġshort":1210,"Ġfamily":1211,"Ġdet":1212,"Ġassociated":1213,"rib":1214,"Ġproced":1215,"genital":1216,"Ġreg":1217,"omy":1218,"Ġappear":1219,"co":1220,"ont":1221,"Ġso":1222,"ĠAutosomal":1223,"astic":1224,"Ġcor":1225,"ability":1226,"atic":1227,"ater":1228,"ĠNe":1229,"Ġpattern":1230,"Ġknown":1231,"sis":1232,"Ġmovement":1233,"ice":1234,"ĠThere":1235,"Ġmake":1236,"Ġmet":1237,"Ġyear":1238,"lex":1239,"osed":1240,"Ġabnormalities":1241,"Ġhist":1242,"stru":1243,"Ġrelated":1244,"ĠSh":1245,"Ġresp":1246,"Is":1247,"Ġtumors":1248,"Ġbl":1249,"onia":1250,"Ġinfection":1251,"Ġcopy":1252,"Ġop":1253,"urrent":1254,"ening":1255,"Ġgl":1256,"eling":1257,"Ġacid":1258,"bin":1259,"Ġhorm":1260,"ysical":1261,"Ġtreated":1262,"ts":1263,"atory":1264,"Ġarter":1265,"Ġearly":1266,"Ġbefore":1267,"Ġbeing":1268,"Ġlower":1269,"gin":1270,"ri":1271,"ailure":1272,"Ġflu":1273,"Ġcontrol":1274,"els":1275,"Ġfood":1276,"cephal":1277,"uk":1278,"cular":1279,"ect":1280,"Ġdisorders":1281,"ving":1282,"ronic":1283,"Ġhyper":1284,"Ġparent":1285,"ible":1286,"ĠCancer":1287,"cop":1288,"Ġser":1289,"arrow":1290,"Ġtissues":1291,"Ġbec":1292,"Ġdiagnose":1293,"roid":1294,"Ġvess":1295,"osome":1296,"ational":1297,"Ġprogress":1298,"Ġimpairment":1299,"amm":1300,"Ġpal":1301,"Ġinfections":1302,"ĠII":1303,"ian":1304,"ĠSe":1305,"ft":1306,"ĠWhen":1307,"Ġchemotherapy":1308,"Ġparts":1309,"Ġfind":1310,"reb":1311,"eding":1312,"Ġmutation":1313,"ĠHowever":1314,"view":1315,"Ġqu":1316,"ĠMost":1317,"Ġaffects":1318,"Ġdone":1319,"oplasia":1320,"ange":1321,"Ġdamage":1322,"ked":1323,"itary":1324,"yly":1325,"Ġinj":1326,"Ġbones":1327,"erg":1328,"de":1329,"Ġpos":1330,"ancy":1331,"Ġchildhood":1332,"Ġhistory":1333,"Ġresearch":1334,"Ġdoes":1335,"ĠPro":1336,"Ġpar":1337,"its":1338,"ĠShort":1339,"Ġlar":1340,"irth":1341,"iple":1342,"xy":1343,"Ġlife":1344,"Ġamount":1345,"Ġurine":1346,"ame":1347,"io":1348,"ates":1349,"Ġback":1350,"cles":1351,"Ġir":1352,"Ġsug":1353,"izures":1354,"utations":1355,"rect":1356,"Ġgo":1357,"Ġresults":1358,"Ġchromosome":1359,"ĠGene":1360,"ants":1361,"actyly":1362,"Ġend":1363,"als":1364,"Ġprovider":1365,"osp":1366,"itation":1367,"known":1368,"Ġimmune":1369,"Ġblock":1370,"lamm":1371,"Ġfluid":1372,"ired":1373,"the":1374,"Ġ4":1375,"ĠDe":1376,"ĠDise":1377,"Ġmuscles":1378,"ĠAs":1379,"dro":1380,"Ġdefect":1381,"ands":1382,"Ġdysplasia":1383,"aring":1384,"ior":1385,"Ġcal":1386,"ficult":1387,"Ġimport":1388,"odes":1389,"linked":1390,"Ġorgans":1391,"ner":1392,"Ġag":1393,"ween":1394,"Ġloc":1395,"Ġproteins":1396,"Ġcheck":1397,"Ġmicro":1398,"though":1399,"Ġunknown":1400,"Ġmon":1401,"'t":1402,"Ġbreat":1403,"Ġabd":1404,"adder":1405,"Ġimportant":1406,"zym":1407,"Ġlong":1408,"ĠRes":1409,"Ġvarious":1410,"hing":1411,"arg":1412,"Ġprocedure":1413,"Ġdrugs":1414,"Ġdepend":1415,"hers":1416,"bs":1417,"Ġrece":1418,"bl":1419,"Ġits":1420,"Ġmaking":1421,"ĠTests":1422,"Ġbirth":1423,"Ġtake":1424,"Ġwomen":1425,"itive":1426,"acial":1427,"Ġadult":1428,"Ġfing":1429,"ident":1430,"NA":1431,"Ġmedicines":1432,"Ġred":1433,"crib":1434,"ĠDiagn":1435,"ysis":1436,"abil":1437,"Ġyears":1438,"Ġattack":1439,"Ġdyst":1440,"Ġweakness":1441,"Ġbecause":1442,"Ġdifficult":1443,"Ġhead":1444,"Ġbegin":1445,"Ġsw":1446,"och":1447,"rimary":1448,"ĠInt":1449,"Ġdiet":1450,"elay":1451,"Ġadd":1452,"uc":1453,"ctive":1454,"Ġphysical":1455,"Ġgeneral":1456,"ful":1457,"Ġfailure":1458,"Ġnerve":1459,"Ġbu":1460,"Ġenzym":1461,"Ġgiv":1462,"stit":1463,"ester":1464,"ĠDrug":1465,"ĠThey":1466,"ellect":1467,"pt":1468,"Ġbetween":1469,"ĠAd":1470,"Ġintest":1471,"ree":1472,"ĠReview":1473,"Ġvessels":1474,"Ġstage":1475,"Ġactivity":1476,"Ġcons":1477,"Ġexp":1478,"Ġjoint":1479,"ste":1480,"Ġspecial":1481,"Ġwhere":1482,"ellectual":1483,"val":1484,"Ġlim":1485,"uf":1486,"Ġinstru":1487,"Ġcharacterized":1488,"Ġdisability":1489,"ereb":1490,"outh":1491,"Ġmedications":1492,"Ġreduce":1493,"enter":1494,"ning":1495,"round":1496,"Ġvision":1497,"gs":1498,"Ġimpro":1499,"iop":1500,"alk":1501,"Ġthere":1502,"Ġmild":1503,"Ġantib":1504,"Ġtub":1505,"Ġext":1506,"Ġinter":1507,"Ġve":1508,"Ġlikely":1509,"Ġstand":1510,"Ġsubst":1511,"Ġmen":1512,"ostic":1513,"Ġhair":1514,"erc":1515,"Ġacc":1516,"Ġanemia":1517,"ĠPat":1518,"ouns":1519,"ĠChe":1520,"Ġspe":1521,"icular":1522,"ĠMan":1523,"ade":1524,"Ġbreast":1525,"Ġbecome":1526,"luc":1527,"ĠYour":1528,"ĠChild":1529,"asal":1530,"Ġdes":1531,"Ġlip":1532,"Ġmouth":1533,"Ġble":1534,"Ġchol":1535,"Ġweight":1536,"Ġless":1537,"Ġdiseases":1538,"ize":1539,"unt":1540,"Ġdiagnosed":1541,"ritis":1542,"Ġmult":1543,"Ġhearing":1544,"Ġsmo":1545,"Ġincreased":1546,"Ġareas":1547,"Ġtaking":1548,"Ġwork":1549,"ĠSp":1550,"Ġkidneys":1551,"ural":1552,"Ġmem":1553,"Ġmain":1554,"peri":1555,"ox":1556,"Ġwithin":1557,"ported":1558,"ĠCare":1559,"ĠNational":1560,"Ġbuild":1561,"Ġhealthy":1562,"Ġfew":1563,"Ġmuch":1564,"roke":1565,"Ġprocess":1566,"Ġexperi":1567,"leep":1568,"Ġhem":1569,"Ġexam":1570,"kele":1571,"ĠCon":1572,"arr":1573,"Ġwell":1574,"Ġseveral":1575,"ages":1576,"Ġwhether":1577,"aging":1578,"Ġleuk":1579,"ounseling":1580,"habil":1581,"Ġslow":1582,"habilitation":1583,"Ġeyes":1584,"ocyt":1585,"Ġchronic":1586,"Ġinstructions":1587,"Ġmight":1588,"Ġhormone":1589,"Ġchest":1590,"ĠDiagnostic":1591,"alli":1592,"set":1593,"Ġside":1594,"Ġlungs":1595,"Ġident":1596,"Ġfem":1597,"cts":1598,"ances":1599,"iod":1600,"rop":1601,"Ġenzyme":1602,"Ġoffer":1603,"cin":1604,"esterol":1605,"Ġstop":1606,"Ġlarge":1607,"ulation":1608,"Ġvery":1609,"Ġaddress":1610,"alliative":1611,"ĠTherapy":1612,"Ġthem":1613,"ruct":1614,"Ġpresent":1615,"Ġcle":1616,"eth":1617,"Ġinvolved":1618,"Ġ6":1619,"Ġstandard":1620,"CI":1621,"Ġneck":1622,"Ġuses":1623,"plic":1624,"ĠDisease":1625,"Ġinflamm":1626,"Ġbladder":1627,"Ġpregn":1628,"Ġfib":1629,"Ġforms":1630,"Ġnon":1631,"Ġma":1632,"Ġcopies":1633,"Ġremove":1634,"Ġsens":1635,"asis":1636,"Ġcongenital":1637,"Ġvir":1638,"ĠJ":1639,"ially":1640,"ĠInstit":1641,"Ġ\"":1642,"ĠRehabilitation":1643,"Ġcarry":1644,"Ġidentif":1645,"ulin":1646,"Ġhelps":1647,"Ġbleeding":1648,"ĠBlo":1649,"Ġgiven":1650,"Ġflow":1651,"form":1652,"tr":1653,"Ġdeveloping":1654,"uter":1655,"gest":1656,"ffected":1657,"Ġes":1658,"var":1659,"Ġwithout":1660,"Ġgluc":1661,"iet":1662,"ek":1663,"Ġpass":1664,"ĠCounseling":1665,"Ġstart":1666,"com":1667,"ĠEn":1668,"ĠResear":1669,"ĠNI":1670,"Ġincrease":1671,"Ġimprove":1672,"ĠPalliative":1673,"These":1674,"rem":1675,"ĠEx":1676,"Ġurin":1677,"hed":1678,"istic":1679,"Ġob":1680,"atosis":1681,"Ġneeded":1682,"way":1683,"Ġx":1684,"ĠPatients":1685,"keletal":1686,"ins":1687,"logical":1688,"Ġdelay":1689,"Ġseizures":1690,"lder":1691,"Ġthose":1692,"tered":1693,"Ġdist":1694,"Ġexperience":1695,"Ġusing":1696,"cler":1697,"Ġcholesterol":1698,"Ġcl":1699,"Ġmade":1700,"Ġke":1701,"mend":1702,"Ġspinal":1703,"tions":1704,"Ġbreak":1705,"cephaly":1706,"Ġpatient":1707,"rit":1708,"ergy":1709,"creased":1710,"Ġcard":1711,"Ġpoly":1712,"ĠMany":1713,"Ġstature":1714,"Ġtoo":1715,"Ġdystrophy":1716,"Ġrecom":1717,"ĠHealth":1718,"Ġeffects":1719,"uria":1720,"ternal":1721,"Ġaddition":1722,"Ġstruct":1723,"reditary":1724,"not":1725,"ional":1726,"Ġmin":1727,"vous":1728,"Ġdown":1729,"ram":1730,"Ġfemal":1731,"Ġrecommend":1732,"nal":1733,"ĠMy":1734,"Ġaltered":1735,"gal":1736,"Ġprimary":1737,"ĠBlood":1738,"pat":1739,"formation":1740,"ists":1741,"ty":1742,"ino":1743,"Ġnear":1744,"Ġsame":1745,"Ġright":1746,"ech":1747,"ĠTo":1748,"Ġsometimes":1749,"ĠUn":1750,"Ġdue":1751,"xygen":1752,"yl":1753,"ull":1754,"Ġem":1755,"Ġbacter":1756,"Ġenough":1757,"Ġglucose":1758,"ĠCo":1759,"ict":1760,"los":1761,"Ġcord":1762,"Ġ:":1763,"Ġtract":1764,"ple":1765,"asm":1766,"ental":1767,"Ġatrophy":1768,"Ġmutated":1769,"toma":1770,"Ġfactor":1771,"af":1772,"ĠLe":1773,"ochond":1774,"rh":1775,"Ġlab":1776,"Ġadults":1777,"DS":1778,"Ġlegs":1779,"Ġfinger":1780,"Ġcyst":1781,"axia":1782,"ĠNCI":1783,"Ġaround":1784,"ann":1785,"iting":1786,"Ġhaving":1787,"Ġcomplic":1788,"Ġnervous":1789,"gia":1790,"Ġeven":1791,"ria":1792,"roph":1793,"Ġrequ":1794,"Ġsee":1795,"cope":1796,"ited":1797,"Ġrem":1798,"Ġval":1799,"Ġprogressive":1800,"ire":1801,"Ġcharacteristic":1802,"Ġaut":1803,"Ġfacial":1804,"Ġsleep":1805,"ane":1806,"Ġcomple":1807,"Ġproduction":1808,"cul":1809,"Ġface":1810,"Ġchange":1811,"Ġtesting":1812,"Ġparents":1813,"Ġcat":1814,"Ġinside":1815,"hydro":1816,"ĠInstitute":1817,"hyp":1818,"Ġway":1819,"Ġure":1820,"Ġways":1821,"Ġbetter":1822,"Ġoxygen":1823,"otic":1824,"ĠHyper":1825,"Ġcannot":1826,"ulmon":1827,"ĠAffected":1828,"aryn":1829,"den":1830,"ĠPar":1831,"Ġposs":1832,"hea":1833,"Ġabs":1834,"Ġref":1835,"arcoma":1836,"Ġver":1837,"ĠStage":1838,"Ġmultiple":1839,"rel":1840,"Ġarea":1841,"ling":1842,"Ġeffective":1843,"Ġbr":1844,"Ġmonth":1845,"Ġrest":1846,"thritis":1847,"Ġcausing":1848,"fus":1849,"pro":1850,"Ġvit":1851,"Ġinc":1852,"CA":1853,"plant":1854,"Ġair":1855,"igment":1856,"Ġfoods":1857,"Ġparticular":1858,"ract":1859,"Ġsupport":1860,"Ġkeep":1861,"Ġwas":1862,"Ġfamilial":1863,"Ġsex":1864,"odies":1865,"son":1866,"Ġsuggest":1867,"orn":1868,"Ġserious":1869,"itu":1870,"tens":1871,"Ġwhile":1872,"igest":1873,"Ġlight":1874,"rial":1875,"Ġinflammation":1876,"Ġmarrow":1877,"ĠAm":1878,"Ġnasal":1879,"Ġperiod":1880,"Ġrole":1881,"Ġcent":1882,"iratory":1883,"Ġnose":1884,"Ġexerc":1885,"Ġleukemia":1886,"rin":1887,"Ġbreathing":1888,"ros":1889,"Ġgast":1890,"ĠDis":1891,"Ġdescrib":1892,"Ġsize":1893,"Ġcalc":1894,"Ġolder":1895,"yroid":1896,"rosis":1897,"omas":1898,"Ġthree":1899,"chers":1900,"Ġstroke":1901,"Ġabdomen":1902,"Ġnodes":1903,"ĠMutations":1904,"Ġreported":1905,"onal":1906,"ieve":1907,"ted":1908,"ologist":1909,"ominal":1910,"Ġbab":1911,"ĠRad":1912,"now":1913,"Ġpict":1914,"romb":1915,"ulmonary":1916,"iopsy":1917,"Ġcereb":1918,"000":1919,"Ġinjur":1920,"Ġtend":1921,"otonia":1922,"Ġhemo":1923,"ortic":1924,"hol":1925,"Ġday":1926,"Ġextra":1927,"Ġher":1928,"ments":1929,"Ġlevel":1930,"Ġvirus":1931,"Ġtube":1932,"clear":1933,"Ġseverity":1934,"Ġintestine":1935,"Ġdu":1936,"like":1937,"Ġmonths":1938,"Ġteeth":1939,"Ġspeech":1940,"ficient":1941,"Ġwhite":1942,"Ġben":1943,"Ġintellectual":1944,"Ġmemb":1945,"letion":1946,"oster":1947,"ĠNeuro":1948,"Ġtransplant":1949,"Ġweek":1950,"Ġlymphoma":1951,"mong":1952,"Ġperform":1953,"pecially":1954,"Ġsk":1955,"ĠCom":1956,"ĠMicro":1957,"ĠHeart":1958,"ĠResearchers":1959,"ĠIII":1960,"osomes":1961,"arm":1962,"ĠDNA":1963,"Ġfrequent":1964,"tomach":1965,"Ġfever":1966,"ĠSyndrome":1967,"Ġcomplications":1968,"Ġarteries":1969,"Ġtrig":1970,"esis":1971,"otor":1972,"Ġcombin":1973,"Ġmeas":1974,"Ġscan":1975,"vir":1976,"related":1977,"__":1978,"ĠAt":1979,"jor":1980,"ode":1981,"utr":1982,"Ġenergy":1983,"ish":1984,"state":1985,"mental":1986,"Ġlear":1987,"Ġiron":1988,"Ġill":1989,"ĠHigh":1990,"Ġstomach":1991,"Ġ10":1992,"Ġinfect":1993,"Ġupper":1994,"get":1995,"elling":1996,"ool":1997,"Ġgra":1998,"Ġvary":1999,"Ġpossible":2000,"Ġhand":2001,"Ġdepends":2002,"Ġreco":2003,"Ġhowever":2004,"Ġmales":2005,"ogra":2006,"ĠHem":2007,"ĠChildren":2008,"Ġcount":2009,"eration":2010,"Ġknow":2011,"Ġsample":2012,"oli":2013,"pect":2014,"Th":2015,"oim":2016,"Ġamong":2017,"edia":2018,"igher":2019,"Ġdefects":2020,"Ġthough":2021,"ĠAlthough":2022,"Ġbiopsy":2023,"cyc":2024,"ression":2025,"Ġpregnancy":2026,"Ġcurrent":2027,"Ġremoved":2028,"ĠOp":2029,"ĠWe":2030,"itochond":2031,"Ġthin":2032,"Ġlif":2033,"ĠMus":2034,"ĠLow":2035,"ĠPh":2036,"Ġcontin":2037,"Ġmicros":2038,"Ġevery":2039,"tain":2040,"Ġsuf":2041,"ĠAr":2042,"Ġdeath":2043,"cyclop":2044,"lob":2045,"ospital":2046,"ĠEncyclop":2047,"ĠEncyclopedia":2048,"Ġplan":2049,"cohol":2050,"ĠMedic":2051,"Ġespecially":2052,"hav":2053,"Ġdon":2054,"rogen":2055,"Ġhands":2056,"ides":2057,"ellar":2058,"ina":2059,"aneous":2060,"ob":2061,"Ġwal":2062,"iac":2063,"Ġpalate":2064,"Ġstudies":2065,"Ġidentified":2066,"Ġfeet":2067,"Ġmajor":2068,"Ġfemales":2069,"ings":2070,"Ġsal":2071,"entric":2072,"Ġurinary":2073,"ho":2074,"ilar":2075,"Ġdetect":2076,"pathy":2077,"la":2078,"Ġenl":2079,"loc":2080,"ily":2081,"idney":2082,"Ġcomplete":2083,"atele":2084,"active":2085,"Ġaway":2086,"onic":2087,"Ġorgan":2088,"Ġeating":2089,"gnitive":2090,"Ġleads":2091,"ump":2092,"Ġartery":2093,"Ġalthough":2094,"Ġmole":2095,"Ġability":2096,"Ġskeletal":2097,"Ġlink":2098,"abol":2099,"Ġchance":2100,"Ġcomplex":2101,"Ġears":2102,"Ġsus":2103,"Ġvitamin":2104,"Ġsearch":2105,"Ġvis":2106,"Ġcontain":2107,"gi":2108,"ash":2109,"Ġmakes":2110,"Ġepis":2111,"Ġleast":2112,"Ġgenerally":2113,"galy":2114,"oimmune":2115,"vic":2116,"thal":2117,"ĠLy":2118,"Ġsubstances":2119,"Ġbacteria":2120,"Ġillness":2121,"omiting":2122,"Ġsugar":2123,"Ġplac":2124,"ĠKidney":2125,"arrhea":2126,"Ġcommonly":2127,"Ġgetting":2128,"Hyp":2129,"Ġhigher":2130,"Ġthyroid":2131,"Ġinfants":2132,"This":2133,"rup":2134,"onary":2135,"eric":2136,"Ġstem":2137,"ĠSc":2138,"ye":2139,"Ġelect":2140,"be":2141,"ĠPre":2142,"elan":2143,"Ġhereditary":2144,"ream":2145,"ĠInd":2146,"Ġinfancy":2147,"clerosis":2148,"Ġonset":2149,"Ġdirect":2150,"Ġmovements":2151,"Ġovar":2152,"Ġpan":2153,"Ġbal":2154,"oor":2155,"ography":2156,"utes":2157,"iety":2158,"ĠMal":2159,"Ġsufficient":2160,"Ġhard":2161,"Ġabnormality":2162,"iotic":2163,"hyth":2164,"ways":2165,"ĠIV":2166,"Ġincreases":2167,"Ġunt":2168,"Ġproper":2169,"Ġimaging":2170,"Ġcy":2171,"Ġpot":2172,"ma":2173,"umm":2174,"vers":2175,"Ġfamilies":2176,"encephal":2177,"Ġtaken":2178,"dle":2179,"ĠClinical":2180,"oles":2181,"Ġreceive":2182,"rink":2183,"ward":2184,"Ġbel":2185,"Ġcarcin":2186,"Ġremain":2187,"Ġcure":2188,"lying":2189,"Ġfl":2190,"Ġfore":2191,"Ġmater":2192,"ĠAplasia":2193,"Ġleading":2194,"urn":2195,"ust":2196,"havior":2197,");":2198,"atal":2199,"ĠCongenital":2200,"oliosis":2201,"Ġinh":2202,"ignant":2203,"Ġnormally":2204,"Ġnerves":2205,"ĠWith":2206,"Ġabdominal":2207,"nia":2208,"ither":2209,"Ġconne":2210,"ĠEp":2211,"Ġunus":2212,"psy":2213,"Ġ8":2214,"ostosis":2215,"Ġexercise":2216,"Ġapp":2217,"Ġmedicine":2218,"Ġsmoking":2219,"idosis":2220,"Ġprostate":2221,"chn":2222,"Ġdigest":2223,"oderm":2224,"ĠAc":2225,"man":2226,"Ġcir":2227,"Ġproblem":2228,"Ġthink":2229,"omegaly":2230,"Ġswelling":2231,"arget":2232,"cing":2233,"Ġmid":2234,"estinal":2235,"met":2236,"Ġenter":2237,"Ġcolon":2238,"Ġactive":2239,"Ġcalcium":2240,"ios":2241,"par":2242,"Ġsa":2243,"dactyly":2244,"viron":2245,"ills":2246,"ider":2247,"enia":2248,"Ġlast":2249,"Ġinsulin":2250,"Ġmalformation":2251,"alysis":2252,"Ġrepl":2253,"SA":2254,"Ġhy":2255,"Ġneurological":2256,"iomy":2257,"ration":2258,"reg":2259,"ialysis":2260,"Ġmyopathy":2261,"Ġdescribed":2262,"Ġshe":2263,"Ġbow":2264,"Ġstress":2265,"ĠTalk":2266,"Ġarms":2267,"Ġimmun":2268,"Ġ20":2269,"Ġmanner":2270,"less":2271,"udden":2272,"Ġmod":2273,"ential":2274,"ĠDo":2275,"Ġwater":2276,"Ġvomiting":2277,"Ġclot":2278,"Ġsubstance":2279,"Ġer":2280,"Ġdeterm":2281,"ĠNIH":2282,"Hypoplasia":2283,"RI":2284,"aired":2285,"Ġyoun":2286,"Ġplatele":2287,"aw":2288,"ulth":2289,"Ġataxia":2290,"ock":2291,"renal":2292,"ituitary":2293,"ulthood":2294,"anth":2295,"Ġlit":2296,"Ġproviders":2297,"ĠDisord":2298,"ĠTr":2299,"ray":2300,"nea":2301,"ix":2302,"Ġalcohol":2303,"ĠGeneral":2304,"led":2305,"Ġeither":2306,"aches":2307,"ĠHypert":2308,"Ġproduce":2309,"Ġchromosomes":2310,"Ġhypoplasia":2311,"Ġtrave":2312,"Ġcav":2313,"osph":2314,"Ġgland":2315,"to":2316,"ton":2317,"Ġhospital":2318,"Ġoptions":2319,"Ġlocation":2320,"ape":2321,"Ġprescrib":2322,"ĠRadiation":2323,"Ġunderlying":2324,"Ġdifficulty":2325,"Ġvein":2326,"Ġavoid":2327,"Ġrecur":2328,"Ġacute":2329,"PS":2330,"ĠOver":2331,"ordin":2332,"Ġrespiratory":2333,"ole":2334,"Ġlabor":2335,"arged":2336,"ocl":2337,"aract":2338,"Ġexc":2339,"ĠInf":2340,"ĠChem":2341,"Ġmitochond":2342,"Ġwhat":2343,"Ġinjury":2344,"Ġallow":2345,"AS":2346,"oot":2347,"Ġlack":2348,"ĠLymph":2349,"Ġfeel":2350,"HD":2351,"cu":2352,"blas":2353,"ĠIntellectual":2354,"Ġtemp":2355,"ids":2356,"neum":2357,"hyd":2358,"ummary":2359,"Ġnutr":2360,"ĠAnt":2361,"Ġparticularly":2362,"edi":2363,"imilar":2364,"Ġcreat":2365,"Ġhormones":2366,"Ġepisodes":2367,"Ġneuropathy":2368,"function":2369,"Ġthen":2370,"Ġplay":2371,"Ġactiv":2372,"Ġwide":2373,"Ġthroughout":2374,"CD":2375,"ĠMore":2376,"Ġel":2377,"Ġgreat":2378,"steop":2379,"aged":2380,"Ġspreads":2381,"Ġrect":2382,"unctions":2383,"Ġchemical":2384,"osphat":2385,"Ġclear":2386,"Ġbro":2387,"Ġglands":2388,"Ġrenal":2389,"ĠDiabetes":2390,"Ġdeletion":2391,"ories":2392,"Ġmedication":2393,"allow":2394,"erat":2395,"idge":2396,"Ġprof":2397,"ulate":2398,"Ġrecurrent":2399,"ascular":2400,"Ġmetabol":2401,"Ġdisrup":2402,"Ġenviron":2403,"Ġunderst":2404,"teb":2405,"erature":2406,"ites":2407,"Ġhepat":2408,"Ġplace":2409,"enal":2410,"Ġinfected":2411,"lev":2412,"Ġmicroscope":2413,"genesis":2414,"lobin":2415,"Ġprogn":2416,"Ġreduced":2417,"Ġappears":2418,"Ġdecre":2419,"Ġarthritis":2420,"Ġjoints":2421,"old":2422,"Ġwebs":2423,"Ġclots":2424,"generation":2425,"Ġmuscular":2426,"Ġformation":2427,"itus":2428,"odactyly":2429,"pha":2430,"Ġothers":2431,"ĠSee":2432,"lic":2433,"ark":2434,"Ġabnormally":2435,"Ġsimilar":2436,"ibit":2437,"Ġadulthood":2438,"ake":2439,"Ġkill":2440,"idered":2441,"Ġmaterial":2442,"Ġcontact":2443,"Ġconsidered":2444,"sh":2445,"Ġdiarrhea":2446,"Ġproduced":2447,"ĠIndividual":2448,"ĠDisorders":2449,"Ġwebsite":2450,"Ġthromb":2451,"Ġautoimmune":2452,"Ġureth":2453,"que":2454,"Ġantibodies":2455,"sing":2456,"Ġ15":2457,"oids":2458,"Ġrequire":2459,"ĠChemotherapy":2460,"Ġult":2461,"Ġlater":2462,"Ġbile":2463,"Ġdays":2464,"Ġweeks":2465,"odium":2466,"heter":2467,"chy":2468,"kinson":2469,"yle":2470,"Ġnarrow":2471,"osure":2472,"aling":2473,"Ġprovide":2474,"tension":2475,"ĠIndividuals":2476,"go":2477,"utaneous":2478,"Ġresulting":2479,"Ġrele":2480,"ails":2481,"Ġbest":2482,"Ġrepe":2483,"igue":2484,"Ġrate":2485,"Ġgastro":2486,"Ġbaby":2487,"Ġcho":2488,"Ġradio":2489,"Ġmat":2490,"ĠUnited":2491,"ĠAmeric":2492,"look":2493,"Ġprocedures":2494,"Ġcoronary":2495,"ĠSeizures":2496,"ĠWhat":2497,"Ġmotor":2498,"ipher":2499,"iasis":2500,"ats":2501,"ipheral":2502,"Ġname":2503,"eopl":2504,"Ġthought":2505,"Ġexact":2506,"Ġpoor":2507,"Ġeas":2508,"ĠCereb":2509,"Ġpath":2510,"ema":2511,"Ġattacks":2512,"Ġvalve":2513,"Ġunclear":2514,"uven":2515,"iness":2516,"Ġpigment":2517,"ention":2518,"Ġbehavior":2519,"seal":2520,"uvenile":2521,"Ġhapp":2522,"Ġtested":2523,"tle":2524,"usion":2525,"Ġrespons":2526,"ĠCognitive":2527,"blastoma":2528,"rine":2529,"Ġwors":2530,"Ġantibiotic":2531,"romatosis":2532,"ias":2533,"Ġinvolve":2534,"Mutations":2535,"bility":2536,"Ġul":2537,"osa":2538,"aving":2539,"ophil":2540,"Ġaccum":2541,"fort":2542,"Ġspine":2543,"gressive":2544,"Ġfil":2545,"term":2546,"Ġprom":2547,"ĠWh":2548,"iomyopathy":2549,"rich":2550,"Ġuntil":2551,"Ġcarcinoma":2552,"iff":2553,"Ġcomputer":2554,"of":2555,"ining":2556,"aped":2557,"by":2558,"ches":2559,"heim":2560,"ĠDys":2561,"ĠStates":2562,"Ġpictures":2563,"argeted":2564,"cont":2565,"gan":2566,"wn":2567,"head":2568,"Ġhour":2569,"ĠChronic":2570,"ryp":2571,"ching":2572,"stream":2573,"reatening":2574,"estyle":2575,"ras":2576,"ened":2577,"erv":2578,"antile":2579,"ĠRec":2580,"Ġinvolves":2581,"inemia":2582,"Ġworking":2583,"Ġlocated":2584,"side":2585,"Ġappro":2586,"physeal":2587,"Ġadditional":2588,"produ":2589,"Ġwant":2590,"cemia":2591,"ĠHep":2592,"Ġpreval":2593,"sor":2594,"Ġcancers":2595,"Ġfingers":2596,"elo":2597,"Ġoff":2598,"Ġneur":2599,"Ġcombination":2600,"ret":2601,"ives":2602,"Ġfeeling":2603,"ĠCheck":2604,"Ġrib":2605,"ification":2606,"intestinal":2607,"ylo":2608,"omes":2609,"pid":2610,"Ġbloodstream":2611,"arynge":2612,"Ġwalking":2613,"Ġenlarged":2614,"Ġrep":2615,"athyroid":2616,"ingle":2617,"ilepsy":2618,"Ġ30":2619,"bor":2620,"elf":2621,"Ġinhibit":2622,"Ġinject":2623,"Ġsudden":2624,"onger":2625,"ĠPer":2626,"erate":2627,"Ġpen":2628,"Ġpel":2629,"Ġnow":2630,"Ġcatheter":2631,"DL":2632,"mit":2633,"Ġsurv":2634,"Ġclass":2635,"tosis":2636,"genase":2637,"Ġoste":2638,"Ġtox":2639,"ocal":2640,"ronch":2641,"ogly":2642,"Ġprevalence":2643,"Ġborn":2644,"Ġintra":2645,"Ġcarri":2646,"Ġamounts":2647,"Ġbegins":2648,"Ġbuildup":2649,"Ġstructures":2650,"Ġdest":2651,"hydrogenase":2652,"Ġbowel":2653,"zheim":2654,"ĠDep":2655,"Ġdevelopmental":2656,"aking":2657,"Ġrange":2658,"Ġlonger":2659,"Ġtreating":2660,"ĠRed":2661,"acro":2662,"uble":2663,"Ġfunctions":2664,"Ġswallow":2665,"gical":2666,"what":2667,"Ġdrink":2668,"Ġrelieve":2669,"ring":2670,"ĠOn":2671,"Ġpulmonary":2672,"Ġstages":2673,"acc":2674,"Ġpred":2675,"Ġwall":2676,"Ġeat":2677,"Ġadrenal":2678,"Ġhypotonia":2679,"Ġsurf":2680,"AR":2681,"Ġast":2682,"Ġpituitary":2683,"Ġmeasure":2684,"'re":2685,"Ġsin":2686,"omal":2687,"ĠFamil":2688,"Ġeyel":2689,"Ġestim":2690,"Ġtechn":2691,"Ġsafe":2692,"Ġprognosis":2693,"che":2694,"uber":2695,"Ġstool":2696,"Ġdehydrogenase":2697,"Ġmalignant":2698,"Ġexposure":2699,"cept":2700,"ises":2701,"ĠType":2702,"odg":2703,"Ġable":2704,"Ġneph":2705,"Ġbridge":2706,"Ġcentral":2707,"rip":2708,"Ġfet":2709,"Ġevent":2710,"Ġrecept":2711,"aryngeal":2712,"11":2713,"Ġsound":2714,"umb":2715,"ĠDuring":2716,"Ġexcess":2717,"ĠRenal":2718,"Ġopen":2719,"odgkin":2720,"ĠCO":2721,"ausea":2722,"Ġcontinue":2723,"Ġoral":2724,"Ġlact":2725,"Ġcontract":2726,"Ġworld":2727,"rhosis":2728,"Ġmembran":2729,"Ġmuc":2730,"ĠAlzheim":2731,"Ġbalance":2732,"orad":2733,"Ġobes":2734,"Ġtom":2735,"ĠCT":2736,"Ġprofess":2737,"Ġhal":2738,"cep":2739,"Ġmust":2740,"Ġresearc":2741,"ĠNeurological":2742,"orrh":2743,"Ġpneum":2744,"Ġles":2745,"ĠHypoplasia":2746,"ove":2747,"seud":2748,"Ġinsuf":2749,"Ġbeta":2750,"ĠChildhood":2751,"mus":2752,"ries":2753,"ĠMult":2754,"Ġgenital":2755,"Ġemb":2756,"Ġresearchers":2757,"oscop":2758,"Ġreas":2759,"ĠPhysical":2760,"Ġproperly":2761,"ĠRecurrent":2762,"ucc":2763,"Ġsarcoma":2764,"Ġconf":2765,"imal":2766,"press":2767,"Ġdry":2768,"Ġharm":2769,"Ġexternal":2770,"creas":2771,"ĠAbout":2772,"Ġestimated":2773,"Ġdoctors":2774,"Ġcoordin":2775,"Ġtimes":2776,"Ġmiss":2777,"Ġstiff":2778,"Ġcavity":2779,"Ġproducts":2780,"onset":2781,"Ġslowly":2782,"cal":2783,"min":2784,"Ġsodium":2785,"Ġhome":2786,"Ġfrequently":2787,"itting":2788,"arge":2789,"Ġquick":2790,"Ġhepatitis":2791,"GF":2792,"rouble":2793,"Ġrapid":2794,"Ġinsert":2795,"ken":2796,"such":2797,"Ġmill":2798,"Ġhip":2799,"phthal":2800,"Ġbreath":2801,"Ġdifficulties":2802,"ateral":2803,"Ġresponsible":2804,"onse":2805,"Ġcontrib":2806,"Ġclose":2807,"ĠTum":2808,"Ġdev":2809,"Ġstudied":2810,"Ġtomography":2811,"Ġthick":2812,"oses":2813,"ĠAdult":2814,"Ġprol":2815,"ĠLim":2816,"ĠIm":2817,"Ġinjected":2818,"Ġsl":2819,"leen":2820,"arf":2821,"ĠAfter":2822,"Ġhours":2823,"Ġinsufficiency":2824,"inent":2825,"ocytosis":2826,"Ġulcer":2827,"arp":2828,"ars":2829,"Ġview":2830,"ĠFe":2831,"weight":2832,"dys":2833,"legia":2834,"imet":2835,"ĠLung":2836,"Ġresponse":2837,"vis":2838,"Ġlate":2839,"Ġfollowed":2840,"amples":2841,"elanoma":2842,"cancer":2843,"Ġtop":2844,"ĠAL":2845,"elor":2846,"threatening":2847,"Ġdec":2848,"Ġimpaired":2849,"Ġstructure":2850,"Ġnearby":2851,"ex":2852,"Ġmach":2853,"Ġsoft":2854,"cules":2855,"Ġskull":2856,"levated":2857,"ler":2858,"Ġbul":2859,"ĠCle":2860,"Ġregular":2861,"gra":2862,"Ġfoot":2863,"ditional":2864,"rowth":2865,"Ġown":2866,"Ġcra":2867,"irm":2868,"ĠPoly":2869,"Ġanti":2870,"Ġdelayed":2871,"orine":2872,"ents":2873,"Ġlimbs":2874,"Ġmolecules":2875,"CT":2876,"ula":2877,"Ġfats":2878,"Ġfatigue":2879,"Ġduct":2880,"Ġnumb":2881,"Ġspleen":2882,"ĠWhe":2883,"Ġvaries":2884,"ait":2885,"ization":2886,"Ġlifestyle":2887,"ey":2888,"globin":2889,"Ġcough":2890,"Ġlay":2891,"neal":2892,"ĠMuscular":2893,"ER":2894,"arse":2895,"Ġsignals":2896,"earing":2897,"Ġrecommended":2898,"Ġsection":2899,"ĠRet":2900,"Ġoutlook":2901,"Ġperiods":2902,"Ġrecovery":2903,"orph":2904,"ndactyly":2905,"ĠHaving":2906,"Ġagain":2907,"anc":2908,"Ġbenign":2909,"Ġrectum":2910,"Ġlive":2911,"hyl":2912,"Ġoutside":2913,"vices":2914,"hma":2915,"arily":2916,"terior":2917,"Ġsupple":2918,"ĠLeuk":2919,"estions":2920,"ps":2921,"Ġdialysis":2922,"Ġcardiomyopathy":2923,"Ġmineral":2924,"ave":2925,"wide":2926,"ĠDecreased":2927,"TP":2928,"bo":2929,"Ġmental":2930,"oll":2931,"quired":2932,"ocytes":2933,"Ġovarian":2934,"ics":2935,"Ġgly":2936,"Ġleft":2937,"rical":2938,"atric":2939,"Ġtherap":2940,"Ġlining":2941,"Ġdecrease":2942,"Ġcran":2943,"ters":2944,"Ġnecess":2945,"Ġcolor":2946,"uses":2947,"Ġparalysis":2948,"Ġmagn":2949,"Ġtoget":2950,"Ġarm":2951,"ĠNew":2952,"Ġplatelets":2953,"Ġtogether":2954,"ef":2955,"Ġpop":2956,"Ġcondu":2957,"plastic":2958,"Ġlearn":2959,"Ġtoes":2960,"iving":2961,"Ġdevelops":2962,"agmus":2963,"ystagmus":2964,"Ġdetermine":2965,".)":2966,"rocy":2967,"ĠPD":2968,"aves":2969,"Ġmaintain":2970,"Ġmil":2971,"rachy":2972,"Ġadoles":2973,"Ġalpha":2974,"ission":2975,"athic":2976,"Ġsuspect":2977,"Ġreplace":2978,"Ġrea":2979,"Ġworse":2980,"Ġdirectly":2981,"regular":2982,"Ġantibiotics":2983,"mentia":2984,"Ġactivities":2985,"AD":2986,"most":2987,"yth":2988,"orosis":2989,"Ġwom":2990,"ophag":2991,"Ġbecomes":2992,"Ġthro":2993,"Ġaffecting":2994,"asting":2995,"Ġacids":2996,"Ġcysts":2997,"alan":2998,"Ġnode":2999,"rag":3000,"Ġcome":3001,"Ġquestions":3002,"ĠDiseases":3003,"Ġenvironmental":3004,"Ġhalf":3005,"Ġdegeneration":3006,"Ġask":3007,"stead":3008,"fusion":3009,"omer":3010,"Ġfron":3011,"Ġdivid":3012,"Ġstill":3013,"Ġdistin":3014,"Ġurethra":3015,"Ġeg":3016,"ollow":3017,"ardation":3018,"Ġpancreas":3019,"encephaly":3020,"Ġunderstand":3021,"Ġcut":3022,"ĠPrimary":3023,"Ġlinked":3024,"Ġdigestive":3025,"CH":3026,"PD":3027,"elin":3028,"ĠBro":3029,"Ġneeds":3030,"Ġepilepsy":3031,"Ġhernia":3032,"Ġnecessary":3033,"NDS":3034,"oderma":3035,"itone":3036,"uls":3037,"Ġlearning":3038,"Ġyoung":3039,"shaped":3040,"rive":3041,"Ġstep":3042,"Ġeyeb":3043,"ĠAdditional":3044,"Ġverteb":3045,"Ġcompletely":3046,"mature":3047,"patic":3048,"Ġsun":3049,"openia":3050,"olated":3051,"Ġretardation":3052,"Ġlesions":3053,"roy":3054,"rophic":3055,"ll":3056,"Ġsingle":3057,"rab":3058,"Ġbegan":3059,"ĠLong":3060,"Ġsurgical":3061,"osing":3062,"opia":3063,"astatic":3064,"Ġsmoke":3065,"Ġidentify":3066,"Ġquickly":3067,"Ġuter":3068,"Ġorder":3069,"Ġremoval":3070,"Ġstarting":3071,"ĠHepat":3072,"Ġreceptor":3073,"sp":3074,"ils":3075,"idence":3076,"Ġfatty":3077,"Ġmiddle":3078,"Ġsignaling":3079,"elayed":3080,"NS":3081,"lase":3082,"Ġsm":3083,"ĠSkin":3084,"Ġgrowing":3085,"Ġdamaged":3086,"Ġforehead":3087,"elorism":3088,"iver":3089,"obl":3090,"onad":3091,"Ġgive":3092,"Ġmean":3093,"Ġdepression":3094,"Ġrespond":3095,"ctors":3096,"Ġdistal":3097,"Ġcurrently":3098,"Ġflat":3099,"oscopy":3100,"gth":3101,"rhyth":3102,"lind":3103,"Ġmonit":3104,"Ġprim":3105,"oce":3106,"ww":3107,"Ġ--":3108,"Ġ40":3109,"LC":3110,"fib":3111,"ense":3112,"ĠDelayed":3113,"hyroid":3114,"Ġdiv":3115,"Ġstim":3116,"ermat":3117,"Ġextrem":3118,"ĠParkinson":3119,"ailed":3120,"Ġmoderate":3121,"Ġfoc":3122,"odys":3123,"ysm":3124,"Ġshape":3125,"Ġabsor":3126,"Ġmembers":3127,"Ġmitochondrial":3128,"):":3129,"KD":3130,"ets":3131,"ocytic":3132,"afness":3133,"steoporosis":3134,"Ġtrouble":3135,"Ġrepeated":3136,"Ġradioactive":3137,"rasound":3138,"oh":3139,"Ġphosph":3140,"ality":3141,"aste":3142,"Ġtry":3143,"Ġlarger":3144,"Ġlimb":3145,"Ġthroat":3146,"xiety":3147,"ĠQ":3148,"Ġmig":3149,"Ġmachine":3150,"ising":3151,"Ġbi":3152,"Ġbur":3153,"ĠSmo":3154,"Ġabove":3155,"odyst":3156,"ĠPrevent":3157,"ID":3158,"Ġstor":3159,"Ġopening":3160,"entricular":3161,"LA":3162,"heum":3163,"ĠPl":3164,"ived":3165,"Ġpersons":3166,"Ġjust":3167,"Ġdysfunction":3168,"sup":3169,"Ġbil":3170,"Ġdel":3171,"Ġchecked":3172,"Ġcould":3173,"oscope":3174,"Ġencephal":3175,"Ġvari":3176,"untary":3177,"Ġelectrical":3178,"Ġworldwide":3179,"inf":3180,"Ġsclerosis":3181,"Ġpast":3182,"develop":3183,"Ġsurface":3184,"orineural":3185,"crip":3186,"enosis":3187,"Ġfour":3188,"itivity":3189,"ardi":3190,"Ġconst":3191,"Ġswe":3192,"oss":3193,"Ġspastic":3194,"Ġcold":3195,"II":3196,"RE":3197,"nostosis":3198,"Ġnight":3199,"Ġprotect":3200,"Ġplaced":3201,"Ġhydro":3202,"Ġconfirm":3203,"Ġscre":3204,"Ġmale":3205,"Ġvessel":3206,"Ġpicture":3207,"Ġhemoglobin":3208,"Ġtrem":3209,"ĠCont":3210,"Ġlaboratory":3211,"ulo":3212,"inence":3213,"ĠStroke":3214,"Ġexposed":3215,"Ġpregnant":3216,"Ġprofessional":3217,"ĠTumors":3218,"IV":3219,"Ġwhose":3220,"istance":3221,"ĠSevere":3222,"artil":3223,"sych":3224,"lexia":3225,"Ġhemorrh":3226,"Ġmissing":3227,"cell":3228,"Ġphys":3229,"assium":3230,"Ġunusual":3231,"Ġrefer":3232,"ientists":3233,"ĠEven":3234,"Ġadv":3235,"Ġpla":3236,"oints":3237,"Ġrot":3238,"orticoster":3239,"ĠCleft":3240,"RA":3241,"Ġgood":3242,"iect":3243,"Ġearli":3244,"Ġpresence":3245,"oblastic":3246,"Ġnu":3247,"Ġstenosis":3248,"Ġsep":3249,"Ġmyelo":3250,"Ġribs":3251,"Ġyet":3252,"Ġretina":3253,"Ġintestinal":3254,"Ġbelieve":3255,"oradic":3256,"artilage":3257,"Ġmother":3258,"yph":3259,"unct":3260,"ĠFailure":3261,"tein":3262,"ensity":3263,"pproximately":3264,"Ġtravels":3265,"ĠWhile":3266,"Who":3267,"ished":3268,"Ġmac":3269,"Ġwaves":3270,"ĠCat":3271,"Ġsignific":3272,"____":3273,"ĠWhether":3274,"Ġstorage":3275,"Ġpr":3276,"Ġdye":3277,"Ġnausea":3278,"ĠCertain":3279,"ĠWil":3280,"ieved":3281,"Ġdepending":3282,"Ġinterfe":3283,"Ġfibrosis":3284,"Ġcirrhosis":3285,"ĠDoctors":3286,"ĠCerebral":3287,"ĠInformation":3288,"Ġplays":3289,"ĠStud":3290,"Ġess":3291,"asing":3292,"ipation":3293,"Ġsurround":3294,"Ġappearance":3295,"ping":3296,"Ġtalk":3297,"Ġsimp":3298,"Ġcenter":3299,"eroid":3300,"uss":3301,"ĠCor":3302,"ĠMet":3303,"ĠHy":3304,"Ġ12":3305,"ĠWomen":3306,"ismus":3307,"struction":3308,"ĠRedu":3309,"cription":3310,"micro":3311,"inase":3312,"Ġinternal":3313,"ĠCar":3314,"ĠMRI":3315,"ird":3316,"Ġshown":3317,"Ġmilk":3318,"Ġvag":3319,"Ġrash":3320,"Ġ18":3321,"Ġgastrointestinal":3322,"supported":3323,"erative":3324,"Ġlump":3325,"aily":3326,"Ġfunctional":3327,"Ġseries":3328,"manent":3329,"ĠTrans":3330,"Ġessential":3331,"onance":3332,"Ġpy":3333,"Ġlose":3334,"Ġfract":3335,"oglycemia":3336,"ĠFamilial":3337,"12":3338,"Do":3339,"ier":3340,"Ġgall":3341,"ressed":3342,"Ġveins":3343,"mic":3344,"sc":3345,"Ġdecreased":3346,"Ġpermanent":3347,"hesia":3348,"Ġlocal":3349,"rum":3350,"Ġinner":3351,"ĠOne":3352,"Ġkerat":3353,"Ġaccep":3354,"Ġgets":3355,"Ġdetailed":3356,"Ġtone":3357,"rence":3358,"ĠMicrocephaly":3359,"ura":3360,"Ġpur":3361,"osin":3362,"Ġgerm":3363,"ĠEar":3364,"Ġneedle":3365,"Ġoverweight":3366,"Ġworsen":3367,"Ġasthma":3368,"Ġtherapies":3369,"Ġaccepting":3370,"my":3371,"urb":3372,"ĠCent":3373,"ĠCell":3374,"Ġsperm":3375,"Ġregion":3376,"Ġgain":3377,"Ġ100":3378,"Ġcardiac":3379,"Ġultrasound":3380,"Ġsignificant":3381,"ule":3382,"Ġvariety":3383,"Ġtransport":3384,"Ġages":3385,"ucoma":3386,"comfort":3387,"Ġuterus":3388,"AM":3389,"ibility":3390,"Ġresonance":3391,"Ġshortage":3392,"Ġparap":3393,"xylase":3394,"osphate":3395,"Ġdevice":3396,"pir":3397,"Ġdie":3398,"mps":3399,"ĠBone":3400,"izes":3401,"Ġshows":3402,"Ġcorrect":3403,"Ġcleft":3404,"Ġpassed":3405,"Ġpneumonia":3406,"Ġstiffness":3407,"Ġtired":3408,"Ġapproximately":3409,"ĠHearing":3410,"resia":3411,"Ġprescribe":3412,"Ġnutrition":3413,"ĠIs":3414,"Ġspot":3415,"Ġsexual":3416,"Ġswallowing":3417,"Ġvacc":3418,"ĠBut":3419,"Ġrun":3420,"ĠNo":3421,"Ġbenef":3422,"odystrophy":3423,"Ġbronch":3424,"Ġdental":3425,"lytic":3426,"imin":3427,"ĠNeph":3428,"iopathic":3429,"Ġkne":3430,"Ġaden":3431,"Ġdisturb":3432,"Ġskills":3433,"itoneal":3434,"Ġreach":3435,"Ġsalt":3436,"tt":3437,"elia":3438,"ache":3439,"aps":3440,"Ġjuvenile":3441,"Ġdystonia":3442,"Ġlittle":3443,"ĠMultiple":3444,"Ġagainst":3445,"onatal":3446,"anced":3447,"uture":3448,"Ġdeep":3449,"ĠOste":3450,"Ġestrogen":3451,"Ġdepos":3452,"venous":3453,"imeters":3454,"rachydactyly":3455,"Ġdistinctive":3456,"Ġprimarily":3457,"ae":3458,"br":3459,"idase":3460,"ĠScoliosis":3461,"SD":3462,"Ġprevents":3463,"Ġprogression":3464,"Ġ60":3465,"Ġunusually":3466,"rypt":3467,"Ġdaily":3468,"ified":3469,"Ġrelax":3470,"Ġsurge":3471,"Ġretin":3472,"Ġantibody":3473,"ĠSpastic":3474,"Ġsupplements":3475,"AT":3476,"NI":3477,"Ġsend":3478,"ules":3479,"ocytopenia":3480,"Ġrefine":3481,"Ġcort":3482,"Ġcartilage":3483,"ork":3484,"asse":3485,"iltr":3486,"opro":3487,"Ġleg":3488,"ocrine":3489,"ondro":3490,"ĠVis":3491,"AP":3492,"cence":3493,"ires":3494,"pos":3495,"onus":3496,"Ġseem":3497,"Ġgroups":3498,"ongue":3499,"Ġneurons":3500,"Ġwoman":3501,"rabismus":3502,"down":3503,"Ġsick":3504,"Ġsucc":3505,"Ġliqu":3506,"Ġcountry":3507,"lagen":3508,"Ġwidely":3509,"erior":3510,"arth":3511,"Ġlens":3512,"also":3513,"Ġexcessive":3514,"ĠStudies":3515,"urther":3516,"oler":3517,"ĠIncreased":3518,"Ġheartbe":3519,"Ġdoesn":3520,"Ġfibers":3521,"ĠJoint":3522,"ediate":3523,"ophilia":3524,"Summary":3525,"flexia":3526,"Ġmorph":3527,"ably":3528,"ĠWide":3529,"ĠAll":3530,"Ġfemale":3531,"Ġperformed":3532,"Ġtrigger":3533,"MD":3534,"az":3535,"care":3536,"Ġfull":3537,"anger":3538,"Ġthrive":3539,"ĠRare":3540,"ĠInfe":3541,"Ġacquired":3542,"Ġirregular":3543,"Ġbroken":3544,"Ġcontribute":3545,"Ġeyebrow":3546,"Ġextreme":3547,"facial":3548,"Ġax":3549,"oral":3550,"orch":3551,"ithe":3552,"Ġgang":3553,"ĠPoints":3554,"Ġfeeding":3555,"ĠProgressive":3556,"Ġearlier":3557,"ection":3558,"Ġed":3559,"Ġangi":3560,"Ġkind":3561,"rong":3562,"Ġradi":3563,"Ġesophag":3564,"ĠResearch":3565,"Ġseptal":3566,"pus":3567,"Ġisolated":3568,"idism":3569,"ĠAut":3570,"Ġmeth":3571,"Ġincont":3572,"Ġvisual":3573,"seudo":3574,"orchidism":3575,"Ġflex":3576,"ician":3577,"Ġstren":3578,"ĠNarrow":3579,"Ġscal":3580,"ĠAnemia":3581,"ochrom":3582,"rinking":3583,"Ġbabies":3584,"gram":3585,"ologic":3586,"Ġdestroy":3587,"Key":3588,"ption":3589,"Ġent":3590,"Ġcrit":3591,"Ġstones":3592,"ĠFollow":3593,"ĠEarly":3594,"Ġmorphology":3595,"Ġev":3596,"ored":3597,"Ġalong":3598,"ellitus":3599,"vascular":3600,"Ġtongue":3601,"plen":3602,"izz":3603,"Ġtemperature":3604,"ĠReduced":3605,"oes":3606,"Ġbodys":3607,"Ġjaw":3608,"ĠOptions":3609,"Ġclotting":3610,"Ġsurvive":3611,"Ġplaque":3612,"iny":3613,"orphy":3614,"ĠMacro":3615,"Ġsmell":3616,"Ġesophagus":3617,"Ġpump":3618,"aresis":3619,"ĠGI":3620,"Ġpotassium":3621,"xt":3622,"Ġanest":3623,"Ġrarely":3624,"kines":3625,"Ġcover":3626,"Ġinflammatory":3627,"Ġinhibitors":3628,"iber":3629,"Ġscler":3630,"Ġsummary":3631,"Ġpie":3632,"Ġfast":3633,"asms":3634,"Ġanus":3635,"ĠCD":3636,"ĠCol":3637,"ister":3638,"ĠTreatments":3639,"lioma":3640,"Ġcorneal":3641,"Ġveget":3642,"Ġsensory":3643,"asma":3644,"location":3645,"Ġpenis":3646,"ĠBroad":3647,"Ġmellitus":3648,"iform":3649,"Ġseg":3650,"Ġpatches":3651,"Ġpainful":3652,"Ġgoal":3653,"ET":3654,"lut":3655,"Ġbodies":3656,"Ġinfantile":3657,"Ġillnesses":3658,"Ġembry":3659,"Ġcorticoster":3660,"Ġfight":3661,"Ġbo":3662,"ĠSpec":3663,"ĠSmall":3664,"ĠRisk":3665,"ryptorchidism":3666,"pan":3667,"piratory":3668,"Ġsol":3669,"ita":3670,"Ġsmaller":3671,"rebellar":3672,"losum":3673,"Ġlayer":3674,"Ġadolescence":3675,"yg":3676,"Ġsure":3677,"eratosis":3678,"Ġhuman":3679,"Ġneopl":3680,"Ġgas":3681,"Ġanomal":3682,"olip":3683,"Ġstay":3684,"reated":3685,"thy":3686,"Ġwhy":3687,"Ġkinase":3688,"Ġapparent":3689,"wing":3690,"rotic":3691,"Ġvide":3692,"Ġsystems":3693,"Ġmainly":3694,"Ġminutes":3695,"Ġmalformations":3696,"atural":3697,"Ġple":3698,"Ġalmost":3699,"Ġindic":3700,"ĠHereditary":3701,"Ġmetabolic":3702,"Ġrepair":3703,"ĠAlzheimers":3704,"Ġfac":3705,"Ġfuture":3706,"ĠCHD":3707,"Ġfluids":3708,"ĠIntra":3709,"Ġtoxic":3710,"EN":3711,"aphyseal":3712,"atoid":3713,"raine":3714,"uration":3715,"ĠDif":3716,"Ġhemolytic":3717,"Ġovaries":3718,"Ġcreate":3719,"iltrum":3720,"Ġfal":3721,"ross":3722,"ashes":3723,"Ġexpect":3724,"ĠNon":3725,"cephalus":3726,"Ġcallosum":3727,"lindness":3728,"ĠSmoking":3729,"eur":3730,"lant":3731,"Ġpe":3732,"Ġequ":3733,"ĠAf":3734,"ĠAlso":3735,"ĠPulmonary":3736,"Ġteam":3737,"Ġgreater":3738,"Ġreprodu":3739,"ĠAD":3740,"Ġhypot":3741,"rectal":3742,"Ġmonitor":3743,"ĠCataract":3744,"iary":3745,"vious":3746,"ĠTargeted":3747,"Ġhab":3748,"ables":3749,"Ġchann":3750,"ourse":3751,"Ġepi":3752,"Ġdisc":3753,"ĠGast":3754,"ocial":3755,"Ġviral":3756,"ĠLeukemia":3757,"Ġincontinence":3758,"Ġmass":3759,"Ġaspir":3760,"Ġsepar":3761,"rolif":3762,"cogen":3763,"Ġacidosis":3764,"RT":3765,"To":3766,"bes":3767,"bow":3768,"mediate":3769,"Ġliterature":3770,"Ġaccumulation":3771,"olerance":3772,"IDS":3773,"Ġput":3774,"Ġsyndactyly":3775,"Ġnever":3776,"ella":3777,"tingu":3778,"borns":3779,"Ġpelvis":3780,"uberty":3781,"con":3782,"Ġinability":3783,"Ġthor":3784,"iable":3785,"ĠIg":3786,"Ġdiscomfort":3787,"Ġdistingu":3788,"Ġanxiety":3789,"Ġaneur":3790,"thing":3791,"ĠDist":3792,"ĠFood":3793,"angu":3794,"Ġcarries":3795,"ĠRespiratory":3796,"Ġgrad":3797,"Ġobesity":3798,"Ġcoordination":3799,"me":3800,"ndromes":3801,"Ġperipheral":3802,"Ġinvoluntary":3803,"Ġregulate":3804,"Ġcorpus":3805,"Ġfetal":3806,"Ġsurgeon":3807,"rate":3808,"hem":3809,"Ġcur":3810,"ĠCA":3811,"Ġalone":3812,"ertility":3813,"Ġpreventing":3814,"Ġinvolving":3815,"ophage":3816,"Ġblocks":3817,"trans":3818,"Ġbreakdown":3819,"Ġmeasures":3820,"anthus":3821,"Ġfront":3822,"pri":3823,"Ġsac":3824,"osarcoma":3825,"Ġunable":3826,"Ġhypertension":3827,"Ġpalm":3828,"bladder":3829,"Ġlimited":3830,"Ġreason":3831,"anguage":3832,"ophageal":3833,"Ġox":3834,"Ġthings":3835,"Ġgu":3836,"ĠMe":3837,"ared":3838,"Ġatresia":3839,"oplastic":3840,"Ġintestines":3841,"ĠHypertelorism":3842,"Ġhappens":3843,"Ġmembrane":3844,"nic":3845,"ypical":3846,"Ġalways":3847,"genita":3848,"Ġcontra":3849,"Ġimages":3850,"Ġblockage":3851,"ĠMuscle":3852,"ĠRarely":3853,"ator":3854,"Ġpost":3855,"Ġdensity":3856,"ĠSens":3857,"Ġusual":3858,"Ġaccount":3859,"Ġabsence":3860,"ĠAmerican":3861,"Ġcarrier":3862,"plenomegaly":3863,"Ġcommun":3864,"emic":3865,"illary":3866,"ogram":3867,"Ġirrit":3868,"Ġreceived":3869,"Ġcataract":3870,"day":3871,"ores":3872,"atur":3873,"atch":3874,"Ġcase":3875,"lammatory":3876,"Ġducts":3877,"heumatoid":3878,"Ġvideo":3879,"occ":3880,"Ġsch":3881,"alasse":3882,"Ġpuberty":3883,"idiopathic":3884,"Ġtraum":3885,"ĠAcute":3886,"health":3887,"Ġport":3888,"icles":3889,"ĠCro":3890,"ĠInter":3891,"Ġinjuries":3892,"ocele":3893,"ĠAfric":3894,"Co":3895,"aund":3896,"Ġinit":3897,"eds":3898,"cyst":3899,"Ġcollagen":3900,"Ġallows":3901,"priate":3902,"lial":3903,"Ġdizz":3904,"lorectal":3905,"ĠAg":3906,"associated":3907,"Ġregul":3908,"Ġblocked":3909,"athe":3910,"Ġsite":3911,"Ġnatural":3912,"Ġchemicals":3913,"ĠRh":3914,"Ġhypert":3915,"Ġsystemic":3916,"ĠUl":3917,"Ġmillion":3918,"ĠVisual":3919,"chance":3920,"arynx":3921,"Ġcerebral":3922,"Ġmetabolism":3923,"Ġparaplegia":3924,"Ġdermat":3925,"Ġwa":3926,"Ġgum":3927,"Ġcongenita":3928,"Ġantic":3929,"fice":3930,"Ġretinal":3931,"Ġheadaches":3932,"ĠExternal":3933,"ĠCF":3934,"ĠMen":3935,"Ġoptic":3936,"Ġenzymes":3937,"Ġchoice":3938,"Ġeasily":3939,"void":3940,"who":3941,"rays":3942,"Ġank":3943,"angi":3944,"Ġposterior":3945,"Ġexamine":3946,"Ġmelanoma":3947,"ctomy":3948,"lysis":3949,"ĠBre":3950,"genic":3951,"Ġglomer":3952,"Ġairways":3953,"Ġconnective":3954,"gov":3955,"DD":3956,"na":3957,"Ġaim":3958,"atum":3959,"Ġvas":3960,"Ġpalsy":3961,"Ġinserted":3962,"hyroidism":3963,"Ġhabits":3964,"Ġwalk":3965,"ĠTB":3966,"ĠDi":3967,"uplic":3968,"Ġphiltrum":3969,"gina":3970,"Ġrelease":3971,"CP":3972,"ML":3973,"Ġfurther":3974,"lycer":3975,"Ġlanguage":3976,"str":3977,"amine":3978,"ĠBrachydactyly":3979,"Ġresistance":3980,"Ġphalan":3981,"Ġhyperplasia":3982,"Ġnutrients":3983,"ediatric":3984,"Ġphalanx":3985,"ĠProm":3986,"Ġdeafness":3987,"Ġchang":3988,"Ġrhyth":3989,"Ġinherits":3990,"ĠUT":3991,"ĠStrabismus":3992,"Ġcompon":3993,"control":3994,"dose":3995,"Ġemp":3996,"Ġonce":3997,"ĠOf":3998,"angiect":3999,"Ġprevention":4000,"Ġattach":4001,"ĠOptic":4002,"ĠWeight":4003,"idermo":4004,"whe":4005,"Ġterm":4006,"Ġtiny":4007,"Ġprob":4008,"ĠNystagmus":4009,"Ġshortness":4010,"Ġreproductive":4011,"13":4012,"come":4013,"rest":4014,"ĠImp":4015,"ĠCran":4016,"ĠPain":4017,"ĠGu":4018,"blems":4019,"Ġpolydactyly":4020,"Ġabsent":4021,"Ġremains":4022,"Ġfilter":4023,"Ġreplacement":4024,"Ġabsorb":4025,"Ġdeposits":4026,"Mar":4027,"Ġfru":4028,"Ġdeform":4029,"athia":4030,"Ġsuccess":4031,"Hodgkin":4032,"mann":4033,"Ġcry":4034,"Ġdementia":4035,"verage":4036,"ĠLear":4037,"Ġintolerance":4038,"Ġsupp":4039,"Ġtubes":4040,"kinesia":4041,"CoA":4042,"card":4043,"Ġtell":4044,"Ġosteoporosis":4045,"Ġcourse":4046,"rod":4047,"use":4048,"used":4049,"Ġnur":4050,"estational":4051,"ups":4052,"activity":4053,"Ġraise":4054,"ĠThromb":4055,"Ġprovided":4056,"ief":4057,"Ġposition":4058,"Ġspecializes":4059,"Ġsuggests":4060,"athyroidism":4061,"ĠControl":4062,"Ġrotated":4063,"Ch":4064,"RP":4065,"SP":4066,"Ġfall":4067,"ĠTop":4068,"tomy":4069,"ival":4070,"aced":4071,"ĠBab":4072,"Ġgoes":4073,"Ġmemory":4074,"ĠNINDS":4075,"plete":4076,"odeficiency":4077,"developed":4078,"ĠHydro":4079,"aundice":4080,"oice":4081,"aser":4082,"ution":4083,"absor":4084,"Ġnotice":4085,"ĠNormal":4086,"Ġimper":4087,"ĠBeing":4088,"Ġtempor":4089,"alip":4090,"Ġdark":4091,"lopec":4092,"ociation":4093,"ĠAnother":4094,"10":4095,"Ġtaste":4096,"Ġanal":4097,"ĠClin":4098,"Ġ200":4099,"Ġcontro":4100,"Ġpopulation":4101,"lopecia":4102,"lers":4103,"ĠZ":4104,"Ġidiopathic":4105,"Ġtargeted":4106,"omic":4107,"Ġsomeone":4108,"arcot":4109,"Ġbacterial":4110,"Ġplaces":4111,"Ġdisrupt":4112,"Ġheartbeat":4113,"SF":4114,"Ġturn":4115,"atories":4116,"Ġthumb":4117,"ifid":4118,"Ġprotective":4119,"Ġpremature":4120,"Ġmobility":4121,"Ġtakes":4122,"Ġnewborns":4123,"ĠProblems":4124,"Ġemot":4125,"Ġviruses":4126,"arpal":4127,"Ġvertebral":4128,"Ġcritical":4129,"ĠBreast":4130,"BC":4131,"Ġset":4132,"omatosis":4133,"Ġpsych":4134,"ently":4135,"onged":4136,"valu":4137,"Ġsupportive":4138,"ĠMedicines":4139,"oclonus":4140,"ĠCOL":4141,"Ġgallbladder":4142,"thyosis":4143,"creat":4144,"ff":4145,"sw":4146,"ĠBle":4147,"Ġlys":4148,"Ġtransmit":4149,"Ġparas":4150,"Ġyounger":4151,"hydration":4152,"Ġreaction":4153,"Ġtrauma":4154,"ask":4155,"ellow":4156,"Ġstaging":4157,"ĠFron":4158,"ĠIns":4159,"Ġfollows":4160,"rict":4161,"Ġsoon":4162,"Ġprogresses":4163,"Ġquit":4164,"Ġtremor":4165,"Ġimperfect":4166,".\"":4167,"Ġblindness":4168,"upus":4169,"Ġmeat":4170,"Ġcolitis":4171,"Ġartic":4172,"lux":4173,"inding":4174,"Ġvisit":4175,"ĠWithout":4176,"ollen":4177,"Tooth":4178,"Marie":4179,"betic":4180,"Ġcap":4181,"ĠCl":4182,"ĠCryptorchidism":4183,"Ġ11":4184,"Ġheadache":4185,"Ġeryth":4186,"Ġdivision":4187,"Ġreferred":4188,"Ġvegetables":4189,"ĠHodgkin":4190,"Ġvascular":4191,"Ġsensation":4192,"Ġcombined":4193,"Ġbehavioral":4194,"Ġflatten":4195,"ez":4196,"ians":4197,"Ġread":4198,"Ġreport":4199,"Ġelevated":4200,"ĠSkeletal":4201,"ĠPart":4202,"antar":4203,"Ġshock":4204,"Ġincreasing":4205,"Ġlaboratories":4206,"Ġsinus":4207,"Ġimperfecta":4208,"Ġdil":4209,"eld":4210,"abd":4211,"Ġexamination":4212,"Ġarrhyth":4213,"Ġmetastatic":4214,"cinosis":4215,"Ġsaliv":4216,"Ġmitochondria":4217,"Ġcarriers":4218,"Ġgenitalia":4219,"phthalmia":4220,"ĠProminent":4221,"work":4222,"ĠNot":4223,"loboma":4224,"ĠCroh":4225,"mutations":4226,"Ġoffice":4227,"ĠCharcot":4228,"Ġamylo":4229,"arcin":4230,"Ġlimit":4231,"Ġharmful":4232,"Ġnumbness":4233,"cystic":4234,"BS":4235,"ST":4236,"growth":4237,"kes":4238,"igital":4239,"Ġhepatic":4240,"Ġparathyroid":4241,"Ġfewer":4242,"Ġsupports":4243,"Ġfractures":4244,"aturated":4245,"Ġdizziness":4246,"ices":4247,"Ġhis":4248,"igo":4249,"Ġfrag":4250,"ropathy":4251,"Ġpelvic":4252,"bac":4253,"ih":4254,"Ġsamples":4255,"ĠSch":4256,"uted":4257,"chan":4258,"ĠHDL":4259,"ĠFact":4260,"Ġsporadic":4261,"izing":4262,"ampt":4263,"Ġcentimeters":4264,"lobulin":4265,"Ġwalls":4266,"Ġsuspected":4267,"Ġliquid":4268,"Ġanesthesia":4269,"CN":4270,"mb":4271,"Ġaort":4272,"ison":4273,"isol":4274,"Ġdose":4275,"Ġdoses":4276,"phar":4277,"phrag":4278,"ounds":4279,"Ġformed":4280,"Ġbuilding":4281,"Ġsteps":4282,"Ġscreening":4283,"Ġinterfere":4284,"ximal":4285,"Ġect":4286,"ĠBl":4287,"themia":4288,"ched":4289,"Ġsocial":4290,"rae":4291,"iabetes":4292,"Ġconver":4293,"Ġmechan":4294,"Ġcontrols":4295,"Ġwould":4296,"lored":4297,"Ġsyndromes":4298,"ĠPost":4299,"ĠEach":4300,"ords":4301,"ĠLess":4302,"Ġtip":4303,"ĠHIV":4304,"ĠBet":4305,"ibular":4306,"ĠNeopl":4307,"Ġuncontrol":4308,"Ġseverely":4309,"hyper":4310,"igmentation":4311,"Ġprescribed":4312,"Ġvaccine":4313,"angiectasia":4314,"phragm":4315,"BB":4316,"eg":4317,"fat":4318,"gu":4319,"mias":4320,"Ġthalasse":4321,"Ġgot":4322,"ergency":4323,"Ġspect":4324,"Ġhappen":4325,"Ġeggs":4326,"ĠPrevention":4327,"uplication":4328,"Ġaorta":4329,"reflexia":4330,"Ġfist":4331,"Ġhum":4332,"Ġnons":4333,"Ġneut":4334,"tend":4335,"ĠLoss":4336,"Ġcontains":4337,"Ġplatelet":4338,"Ġrecurring":4339,"ĠImmun":4340,"Ġaortic":4341,"ushing":4342,"ĠCard":4343,"arring":4344,"healthy":4345,"amptodactyly":4346,"Ġfusion":4347,"ĠPal":4348,"Ġalter":4349,"Ġrisks":4350,"ĠAbs":4351,"Ġsecondary":4352,"Ġscans":4353,"Ġfunctioning":4354,"Ġregions":4355,"Ġendomet":4356,"Ġpancreat":4357,"ĠDepressed":4358,"Ġeventually":4359,"In":4360,"MI":4361,"pinal":4362,"Ġdrinking":4363,"ĠIr":4364,"Ġdisse":4365,"Ġang":4366,"Ġvoice":4367,"Ġray":4368,"Ġpositive":4369,"Ġbreathe":4370,"losa":4371,"ĠMedicare":4372,"Ġenlarge":4373,"oclonal":4374,"Ġsegment":4375,"JD":4376,"LS":4377,"PP":4378,"car":4379,"isis":4380,"Ġfung":4381,"Ġtooth":4382,"ĠAR":4383,"verse":4384,"Ġ14":4385,"Ġfinding":4386,"Ġdietary":4387,"Ġlinks":4388,"Ġpotential":4389,"ĠOnce":4390,"Ġspots":4391,"Ġstrength":4392,"ĠSensorineural":4393,"Ġprobably":4394,"KG":4395,"LD":4396,"ges":4397,"Ġ0":4398,"isions":4399,"let":4400,"olar":4401,"Ġallerg":4402,"ĠUrin":4403,"oplantar":4404,"ĠDevelop":4405,"Ġspectrum":4406,"Ġinstead":4407,"Ġbru":4408,"Ġpartial":4409,"Ġelimin":4410,"Ġelbow":4411,"MT":4412,"born":4413,"Ġold":4414,"Ġdrop":4415,"ĠHorm":4416,"aces":4417,"Ġ75":4418,"Ġcalories":4419,"Ġintravenous":4420,"Ġepiph":4421,"Ġtrain":4422,"Ġaw":4423,"ells":4424,"ĠSLC":4425,"ypes":4426,"Ġste":4427,"Ġadj":4428,"rosclerosis":4429,"Ġsuscept":4430,"Ġvitamins":4431,"going":4432,"Ġpathologist":4433,"arthria":4434,"roliferative":4435,"lip":4436,"atin":4437,"Ġevalu":4438,"Ġansw":4439,"ĠME":4440,"lse":4441,"Ġnev":4442,"Ġcancerous":4443,"ĠFever":4444,"ĠEnd":4445,"Ġrelative":4446,"ystonia":4447,"Ġapnea":4448,"patient":4449,"ĠCommon":4450,"utrition":4451,"Ġmaturation":4452,"Ġtechnician":4453,"bing":4454,"hand":4455,"Ġach":4456,"Ġaverage":4457,"Ġsense":4458,"Ġbase":4459,"ingles":4460,"Ġsynt":4461,"Ġelse":4462,"Ġster":4463,"Ġantig":4464,"Ġcardio":4465,"Ġwaste":4466,"Ġmagnetic":4467,"OX":4468,"rot":4469,"Ġtoe":4470,"ifically":4471,"cline":4472,"Ġcareful":4473,"ĠNIDD":4474,"Ġvalves":4475,"ĠDistal":4476,"ĠNIDDK":4477,"aled":4478,"Ġpseudo":4479,"ĠSup":4480,"ĠSever":4481,"cerebellar":4482,"ques":4483,"ached":4484,"ibr":4485,"Ġ13":4486,"ource":4487,"ĠVI":4488,"ontaneous":4489,"Ġserum":4490,"Ġcomputerized":4491,"GFR":4492,"Ġvagina":4493,"absorption":4494,"ah":4495,"nit":4496,"ony":4497,"Ġdrain":4498,"ares":4499,"ological":4500,"Ġremoves":4501,"ĠInstitutes":4502,"Ġdisrupts":4503,"bone":4504,"yot":4505,"Ġporphy":4506,"arthritis":4507,"ositis":4508,"char":4509,"ĠCNS":4510,"ĠHave":4511,"istant":4512,"ĠElevated":4513,"Ġintake":4514,"ĠThick":4515,"ubin":4516,"ferase":4517,"ĠAtaxia":4518,"Ġcontracture":4519,"uous":4520,"zen":4521,"omatic":4522,"Ġanim":4523,"phosph":4524,"ĠLDL":4525,"Ġ17":4526,"ococc":4527,"odermal":4528,"Ġgreatly":4529,"Ġmethod":4530,"Ġfruits":4531,"tomas":4532,"epend":4533,"erts":4534,"Ġgenetics":4535,"Ġoutpatient":4536,"ĠKyph":4537,"Ġcognitive":4538,"Ġmetac":4539,"encephalopathy":4540,"Ġdivided":4541,"Ġconstipation":4542,"gel":4543,"nails":4544,"ined":4545,"edic":4546,"irdle":4547,"Ġleak":4548,"ĠGrowth":4549,"Ġchromosomal":4550,"uterine":4551,"Ġentire":4552,"affected":4553,"Ġbra":4554,"Ġisn":4555,"chromatosis":4556,"activ":4557,"yses":4558,"Ġdeveloped":4559,"stemic":4560,"Ġcolorectal":4561,"Ġcornea":4562,"Ġverm":4563,"Ġreleased":4564,"Ġobese":4565,"Ġencephalopathy":4566,"Ġdisturbance":4567,"idermolysis":4568,"mal":4569,"ather":4570,"asional":4571,"ĠAvoid":4572,"Ġhealthcare":4573,"Ġscarring":4574,"Ġepid":4575,"culitis":4576,"Ġrecogn":4577,"Ġappet":4578,"Ġtravel":4579,"nitine":4580,"men":4581,"ulop":4582,"enous":4583,"omat":4584,"Ġful":4585,"Ġech":4586,"amed":4587,"Ġventric":4588,"ĠLiver":4589,"Ġmember":4590,"inocerebellar":4591,"rospinal":4592,"Ġmatter":4593,"osaic":4594,"richosis":4595,"Ġmigraine":4596,"Ġbenefit":4597,"ĠTra":4598,"Ġef":4599,"ĠMon":4600,"ĠHypoplastic":4601,"ranial":4602,"Ġendocrine":4603,"Ġhemat":4604,"Ġhemochromatosis":4605,"Ġappropriate":4606,"Ġtechni":4607,"phthalm":4608,"Ġscalp":4609,"lor":4610,"Ġfiber":4611,"Ġwr":4612,"ote":4613,"Ġforward":4614,"Ġhypoglycemia":4615,"Ġrout":4616,"Ġquality":4617,"Ġspecialist":4618,"Ġurination":4619,"Ġrefers":4620,"iosy":4621,"ĠAmericans":4622,"where":4623,"ĠUrinary":4624,"ĠSeveral":4625,"Ġappetite":4626,"pre":4627,"igid":4628,"elated":4629,"Ġsymptomatic":4630,"lopian":4631,"Ġdiaphragm":4632,"Ġcontamin":4633,"Ġunaffected":4634,"Ġproducing":4635,"Ġcoloboma":4636,"Ġincidence":4637,"Ġremaining":4638,"culo":4639,"ĠPDQ":4640,"Ġcorticosteroids":4641,"ĠGastro":4642,"PA":4643,"gers":4644,"Ġcerv":4645,"Ġbed":4646,"icanthus":4647,"Ġhere":4648,"Ġdeg":4649,"Ġcham":4650,"Ġrheumatoid":4651,"Ġlymp":4652,"Ġemergency":4653,"Ġrequires":4654,"ĠWeb":4655,"Ġmembranes":4656,"Ġbullosa":4657,"Ġglycogen":4658,".,":4659,"TR":4660,"ĠHist":4661,"Ġspace":4662,"Ġ19":4663,"ĠHypot":4664,"ĠChanges":4665,"deletion":4666,"Ġbuilds":4667,"hypotonia":4668,"Ġlactose":4669,"Ġreasons":4670,"natal":4671,"pal":4672,"ped":4673,"enign":4674,"Ġconcent":4675,"Ġperitoneal":4676,"ellum":4677,"Ġscar":4678,"Ġsuppress":4679,"ontia":4680,"iplegia":4681,"ĠDiagnosis":4682,"Ġcystic":4683,"fuse":4684,"soriasis":4685,"Ġsimple":4686,"Ġanswer":4687,"Your":4688,"dominal":4689,"mission":4690,"sens":4691,"ari":4692,"Ġgait":4693,"elangiectasia":4694,"roma":4695,"urg":4696,"ĠCyst":4697,"Ġstored":4698,"istent":4699,"acchar":4700,"Ġspond":4701,"Ġacross":4702,"Ġmyelin":4703,"Ġglut":4704,"Ġswollen":4705,"Ġspecialized":4706,"Ġclean":4707,"Ġrestore":4708,"osterone":4709,"ĠInfants":4710,"Ġmyeloid":4711,"osinophil":4712,"cutaneous":4713,"keratosis":4714,"ners":4715,"Ġcr":4716,"cted":4717,"Ġnail":4718,"Ġlupus":4719,"utation":4720,"Ġchor":4721,"olytic":4722,"Ġbeginning":4723,"Ġstarted":4724,"Ġimmunodeficiency":4725,"ĠAlzheimer":4726,"cancerous":4727,"Ġpiece":4728,"aph":4729,"bum":4730,"bral":4731,"Ġflo":4732,"Ġtoday":4733,"ĠPtosis":4734,"pebral":4735,"ĠFacial":4736,"Ġ22":4737,"logist":4738,"ension":4739,"ĠUs":4740,"Ġfatal":4741,"ocytoma":4742,"Ġacidemia":4743,"Ġcerebellum":4744,"Ġtransplantation":4745,"ĠAfrican":4746,"ĠFrontal":4747,"MRI":4748,"PV":4749,"au":4750,"ged":4751,"time":4752,"isomy":4753,"igare":4754,"Ġline":4755,"otid":4756,"Ġheav":4757,"ndromic":4758,"Ġvul":4759,"ightly":4760,"Ġplasma":4761,"ogonad":4762,"axial":4763,"Ġattention":4764,"Ġforeign":4765,"Ġinhibitor":4766,"inflammatory":4767,"het":4768,"Ġsitu":4769,"Ġthym":4770,"opic":4771,"ĠSub":4772,"Ġyellow":4773,"Ġprevious":4774,"Ġmilder":4775,"Ġclearly":4776,"ĠClinodactyly":4777,"LE":4778,"free":4779,"glut":4780,"iocytosis":4781,"vate":4782,"atives":4783,"Ġce":4784,"Ġpub":4785,"Ġfiss":4786,"Ġbot":4787,"Ġdent":4788,"lot":4789,"Ġgran":4790,"Ġliving":4791,"clusion":4792,"plain":4793,"Ġregulation":4794,"Ġobtain":4795,"ĠPeripheral":4796,"Ġglyc":4797,"Ġgradually":4798,"Ġgotten":4799,"wh":4800,"ĠSM":4801,"ulations":4802,"Ġinfl":4803,"ending":4804,"Ġmyel":4805,"Ġsores":4806,"Ġitself":4807,"Ġobstruction":4808,"Ġcerebrospinal":4809,"Ġbroad":4810,"Ġrhythm":4811,"Ġroutine":4812,"aucoma":4813,"risk":4814,"ata":4815,"vered":4816,"ĠTw":4817,"ety":4818,"Ġlaser":4819,"Ġdevices":4820,"upt":4821,"ĠFA":4822,"Ġwhole":4823,"Ġfold":4824,"Ġpainless":4825,"Ġgrows":4826,"Ġglaucoma":4827,"Ġsensitivity":4828,"ĠJuvenile":4829,"ĠInfantile":4830,"Ġeyelids":4831,"Ġsurrounding":4832,"Ġkinds":4833,"Ġchanged":4834,"Ġemotional":4835,"for":4836,"Ġz":4837,"aster":4838,"Ġnod":4839,"ille":4840,"unk":4841,"Ġneonatal":4842,"ĠAbdominal":4843,"cule":4844,"Ġfocuses":4845,"alipes":4846,"find":4847,"ried":4848,"Ġbos":4849,"Ġhold":4850,"ĠDiet":4851,"Ġinflu":4852,"Ġlymphocytes":4853,"ĠOthers":4854,"Ġconsider":4855,"ĠChest":4856,"hydroxylase":4857,"Ġreflux":4858,"Ġvers":4859,"Ġlasts":4860,"Ġrecurred":4861,"ASH":4862,"Ġunderstood":4863,"Ġmucus":4864,"Ġegg":4865,"Ġflexible":4866,"Ġdistinguished":4867,"Most":4868,"ication":4869,"Ġstrong":4870,"ectus":4871,"Ġinjection":4872,"Ġclick":4873,"Ġbreaks":4874,"Ġfingernails":4875,"Ġrequired":4876,"ĠCombin":4877,"ĠArter":4878,"Ġviewed":4879,"Ġdividing":4880,"ĠLearn":4881,"arcinoma":4882,"cious":4883,"oi":4884,"oarthritis":4885,"hetic":4886,"Ġcil":4887,"Ġgestational":4888,"elic":4889,"ĠEKG":4890,"Ġgiving":4891,"Ġcerebellar":4892,"Ġprominent":4893,"Ġprolonged":4894,"arsal":4895,"ĠHepatomegaly":4896,"Ġthalassemia":4897,"Ġbossing":4898,"dy":4899,"oencephalopathy":4900,"Ġduplication":4901,"quam":4902,"ĠBoth":4903,"apse":4904,"Ġmicrodeletion":4905,"Ġfetus":4906,"He":4907,"ject":4908,"land":4909,"ogenesis":4910,"sia":4911,"Ġsarc":4912,"orter":4913,"arin":4914,"ference":4915,"ĠPH":4916,"irs":4917,"Ġspasms":4918,"ruvate":4919,"Ġcontrolling":4920,"abilities":4921,"Ġhemorrhage":4922,"Ġnuclear":4923,"guinal":4924,"Ġmetacarpal":4925,"bal":4926,"dia":4927,"type":4928,"ĠTalipes":4929,"ĠPO":4930,"uding":4931,"asthen":4932,"neur":4933,"ocular":4934,"Ġworks":4935,"Ġmolecule":4936,"parathyroidism":4937,"Ġcortisol":4938,"Ġevidence":4939,"ĠNormally":4940,"Ġfully":4941,"iosynostosis":4942,"quamous":4943,"Ġobs":4944,"astes":4945,"ĠThin":4946,"Ġhelpful":4947,"Ġpersonal":4948,"Ġovergrowth":4949,"ĠLower":4950,"minist":4951,"ĠAdults":4952,"Ġlumps":4953,"Ġkeratoderma":4954,"Ġposteriorly":4955,"tra":4956,"Ġsitting":4957,"Ġinte":4958,"Ġdislocation":4959,"auses":4960,"ĠGra":4961,"ĠEh":4962,"ocard":4963,"ĠVer":4964,"ĠApproximately":4965,"Ġretr":4966,"Ġpatterns":4967,"Ġfibr":4968,"remature":4969,"Ġelectro":4970,"Ġnucle":4971,"besity":4972,"Ġcomponent":4973,"Ġtet":4974,"onomic":4975,"ĠSw":4976,"Ġanalysis":4977,"ĠCamptodactyly":4978,"alled":4979,"ĠOcc":4980,"ĠBi":4981,"icho":4982,"agia":4983,"Ġdysostosis":4984,"Ġamino":4985,"Ġagents":4986,"Ġstarts":4987,"ĠScientists":4988,"ĠMalar":4989,"ĠOften":4990,"Ġanimals":4991,"HL":4992,"ivers":4993,"energy":4994,"Ġpage":4995,"iter":4996,"Ġeth":4997,"Ġlax":4998,"ĠSCA":4999,"Ġneural":5000,"Ġ70":5001,"ĠWol":5002,"Ġmethyl":5003,"inoblastoma":5004,"Ġeyelashes":5005,"ĠLimb":5006,"Ġunderstanding":5007,"Ġtemporary":5008,"aj":5009,"Ġtear":5010,"Ġthird":5011,"Ġangina":5012,"aden":5013,"ĠGait":5014,"place":5015,"Ġ16":5016,"moid":5017,"ready":5018,"rown":5019,"Ġtraits":5020,"ee":5021,"ging":5022,"ptic":5023,"requ":5024,"Ġtoward":5025,"Ġonc":5026,"Ġrays":5027,"Ġalready":5028,"Ġspontaneous":5029,"ĠVRE":5030,"Ġproduces":5031,"Ġattached":5032,"Ġtubular":5033,"ĠGeneralized":5034,"Ġclassified":5035,"Ġrapidly":5036,"Ġhips":5037,"Ġreactions":5038,"Ġknees":5039,"oprote":5040,"Ġarticle":5041,"ĠNeoplasm":5042,"asionally":5043,"NF":5044,"OS":5045,"enic":5046,"ilical":5047,"ilateral":5048,"ĠSer":5049,"ĠCKD":5050,"thral":5051,"ĠFal":5052,"ĠGet":5053,"Ġassociation":5054,"Ġdeterior":5055,"Ġpalpebral":5056,"varian":5057,"coming":5058,"Ġtriglycer":5059,"ĠEpicanthus":5060,"dysplasia":5061,"grams":5062,"Ġmacular":5063,"Ġaneurysm":5064,"Ġsuccessful":5065,"AG":5066,"DNA":5067,"gative":5068,"Ġuro":5069,"itral":5070,"aric":5071,"Ġhot":5072,"odialysis":5073,"ĠCJD":5074,"Ġlost":5075,"agic":5076,"Ġaciduria":5077,"Ġtriggers":5078,"Ġuntreated":5079,"Ġadvanced":5080,"Ġsupply":5081,"ĠAbsent":5082,"bumin":5083,"DH":5084,"IC":5085,"oy":5086,"hepatic":5087,"algia":5088,"ĠAppro":5089,"ĠSleep":5090,"ĠCal":5091,"Ġrid":5092,"Ġatypical":5093,"Ġarterios":5094,"rectomy":5095,"Ġmicrocephaly":5096,"Ġintervent":5097,"Ġaccom":5098,"Ġkey":5099,"Ġdonor":5100,"called":5101,"sure":5102,"isms":5103,"etwork":5104,"utions":5105,"ĠPectus":5106,"Ġdele":5107,"ĠObesity":5108,"issue":5109,"olysis":5110,"Ġreturn":5111,"Ġroof":5112,"ĠDrugs":5113,"Ġfibro":5114,"ĠHypertension":5115,"ĠMedications":5116,"Ġcyt":5117,"Ġdrinks":5118,"Ġulcers":5119,"strual":5120,"MP":5121,"elog":5122,"pond":5123,"yria":5124,"Ġmist":5125,"ionals":5126,"Ġlice":5127,"ĠCan":5128,"emal":5129,"Ġnext":5130,"Ġhypoph":5131,"ensitivity":5132,"ĠVentricular":5133,"Ġsensitive":5134,"ĠOverview":5135,"arfan":5136,"Ġstimul":5137,"ĠCentral":5138,"Ġaspirin":5139,"Ġendometrial":5140,"Ġretrieved":5141,"//":5142,"://":5143,"SH":5144,"worm":5145,"ators":5146,"Ġclus":5147,"Ġbasal":5148,"Ġhtt":5149,"idine":5150,"ĠAst":5151,"ĠDu":5152,"Ġ21":5153,"Ġforming":5154,"Ġcarb":5155,"Ġreduces":5156,"There":5157,"riend":5158,"fusions":5159,"tensive":5160,"Ġflattening":5161,"CC":5162,"Dan":5163,"Related":5164,"part":5165,"tia":5166,"tDNA":5167,"Ġoroph":5168,"ised":5169,"isone":5170,"Ġpin":5171,"Ġmes":5172,"Ġmening":5173,"irubin":5174,"Ġchances":5175,"Ġfindings":5176,"ĠMalignant":5177,"Ġaccumulate":5178,"Ġdiscuss":5179,"Ġinitial":5180,"onych":5181,"HS":5182,"Ġinstit":5183,"Ġmelan":5184,"ĠTaking":5185,"ilion":5186,"Ġdisabilities":5187,"ĠPremature":5188,"ĠLi":5189,"rains":5190,"Ġunderdeveloped":5191,"oxysm":5192,"igestive":5193,"Ġlifet":5194,"Ġenvironment":5195,"Ġgastroenter":5196,"ĠCerebellar":5197,"Ġseems":5198,"Ġchannels":5199,"Ġseparate":5200,"Ġvermilion":5201,"oxysmal":5202,"pit":5203,"rance":5204,"tes":5205,"Ġsides":5206,"ene":5207,"Ġinst":5208,"ush":5209,"Ġhall":5210,"oun":5211,"ĠCenter":5212,"Ġheter":5213,"Ġsequ":5214,"Ġvol":5215,"ĠBMI":5216,"orea":5217,"oret":5218,"Ġlisting":5219,"andom":5220,"achy":5221,"Ġoverall":5222,"Ġreduction":5223,"Ġcontrolled":5224,"Ġdietit":5225,"Ġpathway":5226,"ĠCrohn":5227,"ĠTwo":5228,"acy":5229,"best":5230,"vature":5231,"Ġmg":5232,"Ġwastes":5233,"chol":5234,"Ġongoing":5235,"Ġceliac":5236,"ĠBrain":5237,"ĠNer":5238,"Ġ24":5239,"ĠUnd":5240,"Ġjo":5241,"Ġprescription":5242,"Ġrecover":5243,"ĠArthritis":5244,"ĠIntrauterine":5245,"Ġfallopian":5246,"Ġgums":5247,"Ne":5248,"xia":5249,"Ġmot":5250,"Ġcanal":5251,"Ġdehydration":5252,"amide":5253,"ĠDigestive":5254,"ĠOl":5255,"Ġfree":5256,"Ġring":5257,"Ġitching":5258,"ermal":5259,"Ġreducing":5260,"gression":5261,"Ġgrowths":5262,"athies":5263,"Ġspecialists":5264,"Ġureter":5265,"ĠLymphoma":5266,"Ġsignificantly":5267,"ĠInfections":5268,"Ġhypothyroidism":5269,"20":5270,"Test":5271,"nar":5272,"ties":5273,"yros":5274,"Ġgr":5275,"ĠAss":5276,"Ġheight":5277,"ĠHer":5278,"acic":5279,"Ġrandom":5280,"Ġimmediate":5281,"apos":5282,"hedema":5283,"Ġcharacteristics":5284,"Ġurethral":5285,"Ġpigmentation":5286,"ĠLimitation":5287,"ĠQu":5288,"Ġpurp":5289,"Ġhttp":5290,"Danlos":5291,"oe":5292,"ataxia":5293,"Ġself":5294,"Ġphen":5295,"icle":5296,"osyl":5297,"Ġprogram":5298,"Ġstate":5299,"thyroid":5300,"Ġathe":5301,"illed":5302,"Ġgroin":5303,"Ġprec":5304,"ĠUse":5305,"Ġcarbo":5306,"ĠHead":5307,"ĠExamples":5308,"ĠMyelo":5309,"Ġnumbers":5310,"ĠHormone":5311,"Ġlifetime":5312,"ci":5313,"nel":5314,"Ġich":5315,"Ġaud":5316,"Ġfive":5317,"Ġmosaic":5318,"urred":5319,"ĠSte":5320,"Ġdisco":5321,"ĠOvarian":5322,"ĠFl":5323,"duced":5324,"mobility":5325,"Ġweakened":5326,"Ġmenstrual":5327,"Ġexperien":5328,"keleton":5329,"Ġairway":5330,"Ġtends":5331,"Ġeveryone":5332,"Ġcontaining":5333,"ĠHydrocephalus":5334,"RD":5335,"Ġfriend":5336,"itamin":5337,"Ġmis":5338,"Ġdanger":5339,"Ġwasting":5340,"ĠTe":5341,"ĠAct":5342,"ĠSur":5343,"ĠSplenomegaly":5344,"Ġanterior":5345,"ĠMitochond":5346,"estig":5347,"ĠEye":5348,"Ġalbumin":5349,"ipple":5350,"Ġphot":5351,"Ġuric":5352,"portion":5353,"Ġremoving":5354,"Ġimpairs":5355,"Ġrod":5356,"Ġmenop":5357,"ĠSpond":5358,"ĠParas":5359,"Ġcycle":5360,"ĠMacrocephaly":5361,"Ġcurvature":5362,"cardia":5363,"TS":5364,"eep":5365,"hepat":5366,"Ġoper":5367,"Ġdop":5368,"Ġbeam":5369,"ĠMarfan":5370,"phagia":5371,"Ġrub":5372,"Ġrule":5373,"Ġshingles":5374,"Ġcheek":5375,"oidosis":5376,"complete":5377,"Ġdetected":5378,"Ġultimate":5379,"Ġclassic":5380,"ĠDiarrhea":5381,"bacco":5382,"Ġheavy":5383,"Ġarteriosus":5384,"800":5385,"HF":5386,"ault":5387,"lation":5388,"eness":5389,"ength":5390,"Ġmark":5391,"rog":5392,"Ġho":5393,"urance":5394,"ĠPET":5395,"ĠHospital":5396,"ĠNor":5397,"Ġservices":5398,"Ġends":5399,"Ġendoscope":5400,"Ġavoiding":5401,"ĠFeeding":5402,"Ġvertebrae":5403,"Ġcontaminated":5404,"XX":5405,"Ġod":5406,"Ġoss":5407,"Ġpediatric":5408,"mping":5409,"Ġlig":5410,"otrop":5411,"actic":5412,"Ġrupt":5413,"Ġmostly":5414,"coordin":5415,"ĠSparse":5416,"Ġ80":5417,"Ġapproved":5418,"Ġretinopathy":5419,"ĠInfection":5420,"ĠInsulin":5421,"DA":5422,"count":5423,"cranial":5424,"omnia":5425,"Ġmature":5426,"ĠAIDS":5427,"ĠDry":5428,"Ġtrisomy":5429,"ĠEE":5430,"oneph":5431,"ĠChol":5432,"Ġscientists":5433,"Ġquitting":5434,"iofacial":5435,"Ġended":5436,"Ġpolyps":5437,"Ġminor":5438,"Ġvalg":5439,"Ġperforms":5440,"Ġthinking":5441,"Ġtopic":5442,"Ġcramps":5443,"Ġcranial":5444,"ulses":5445,"Ġvariant":5446,"NINDS":5447,"Ġnevus":5448,"pel":5449,"Ġting":5450,"Ġcre":5451,"ington":5452,"Ġhom":5453,"Ġorig":5454,"Ġaren":5455,"romas":5456,"ĠCH":5457,"gnetic":5458,"ĠEct":5459,"ĠLip":5460,"mphal":5461,"Ġmoving":5462,"Ġphase":5463,"oides":5464,"Ġscoliosis":5465,"copic":5466,"Ġconscious":5467,"ĠRetinal":5468,"Ġanomalies":5469,"Ġwaist":5470,"Ġankles":5471,"Ġempty":5472,"Ġfragile":5473,"Ġuncontrolled":5474,"ĠEhlers":5475,"Treatment":5476,"Ġour":5477,"Ġsons":5478,"Ġsynostosis":5479,"ĠCushing":5480,"Ġinfant":5481,"Ġtrunk":5482,"ĠGl":5483,"Ġgives":5484,"Ġexperts":5485,"CAT":5486,"Ġcalcification":5487,"laucoma":5488,"Ġphosphor":5489,"ĠCoronary":5490,"Ġknee":5491,"Ġcovering":5492,"Ġfistula":5493,"Ġeliminate":5494,"ĠKyphosis":5495,"ĠParasites":5496,"caus":5497,"ĠTet":5498,"Ġsyn":5499,"umab":5500,"Ġamyot":5501,"ĠProtein":5502,"Ġgoals":5503,"ĠSpinal":5504,"Ġcirc":5505,"arfarin":5506,"Ġductus":5507,"ĠCenters":5508,"ĠAutoimmune":5509,"Ġanticancer":5510,"ezing":5511,"igidity":5512,"bers":5513,"ori":5514,"Ġbar":5515,"Ġdra":5516,"Ġnares":5517,"Ġlives":5518,"ĠLCH":5519,"Ġtestes":5520,"Ġplus":5521,"Ġouter":5522,"Ġcomputed":5523,"ĠKapos":5524,"ĠKeep":5525,"Ġanything":5526,"olys":5527,"Ġlips":5528,"Ġstops":5529,"Ġautonomic":5530,"Ġcomplement":5531,"Ġdescribes":5532,"Ġburning":5533,"ĠDifferent":5534,"oietic":5535,"cor":5536,"hind":5537,"mur":5538,"Ġions":5539,"Ġsent":5540,"Ġclu":5541,"Ġtoen":5542,"feren":5543,"ĠPR":5544,"agement":5545,"ysms":5546,"Ġactually":5547,"Ġprocesses":5548,"Ġ65":5549,"inogen":5550,"ancreat":5551,"fibromatosis":5552,"ĠCDC":5553,"ĠBlephar":5554,"ependent":5555,"Ġtechniques":5556,"Ġdietitian":5557,"17":5558,"inuria":5559,"Ġpunct":5560,"loss":5561,"Ġeosinophil":5562,"ĠAtr":5563,"amic":5564,"hatic":5565,"ectomy":5566,"Ġgeneralized":5567,"Ġchoose":5568,"Ġslightly":5569,"ĠAdditionally":5570,"Ġgangl":5571,"Ġdilated":5572,"Ġaccompan":5573,"Ġultimately":5574,"counter":5575,"ucop":5576,"uclear":5577,"ying":5578,"Ġbath":5579,"load":5580,"Ġlateral":5581,"Ġstret":5582,"ĠOlder":5583,"agulation":5584,"Ġcellular":5585,"ruction":5586,"Ġphosphate":5587,"Ġepithe":5588,"Ġspeak":5589,"ropenia":5590,"obia":5591,"ĠHypertonia":5592,"Ġthrombocytopenia":5593,"Ġdeformities":5594,"Ġpancreatic":5595,"bestos":5596,"Tests":5597,"Ġatherosclerosis":5598,"Ġmenopause":5599,"posis":5600,"pigmentation":5601,"Ġcutaneous":5602,"Ġnetwork":5603,"osup":5604,"osidosis":5605,"Ġbehind":5606,"Ġconfusion":5607,"ĠRo":5608,"Ġtransfusions":5609,"Ġattaches":5610,"ĠAsk":5611,"Ġurinate":5612,"ledge":5613,"Ġbilirubin":5614,"Ġembryonic":5615,"ifida":5616,"ĠGastrointestinal":5617,"ogonadism":5618,"which":5619,"Ġdeterioration":5620,"onychia":5621,"olysacchar":5622,"ucopolysacchar":5623,"Ġtun":5624,"onan":5625,"Ġpoint":5626,"Ġmix":5627,"Ġwarm":5628,"rachn":5629,"ĠSin":5630,"Ġprograms":5631,"Ġanimal":5632,"Ġheat":5633,"ĠMPS":5634,"Ġdecline":5635,"ĠOral":5636,"ouse":5637,"Ġvariable":5638,"everted":5639,"Ġretention":5640,"iodine":5641,"Ġreflex":5642,"ĠAtt":5643,"Ġrectal":5644,"Ġnarrowing":5645,"Ġstools":5646,"ĠCOPD":5647,"dysplastic":5648,"ĠHepatitis":5649,"abdomy":5650,"ministration":5651,"Ġtingling":5652,"ĠKaposi":5653,"AL":5654,"Ġrol":5655,"inopathy":5656,"Ġsix":5657,"Ġsource":5658,"omelic":5659,"iability":5660,"Ġprost":5661,"amel":5662,"gered":5663,"Ġsept":5664,"ĠBow":5665,"Ġstudying":5666,"Ġneedles":5667,"Ġimage":5668,"Ġjaundice":5669,"airy":5670,"Ġsubun":5671,"ymmet":5672,"ptosis":5673,"ĠArrhyth":5674,"Ġastrocy":5675,"grade":5676,"Ġradiologist":5677,"Ġamyloidosis":5678,"gic":5679,"lit":5680,"urom":5681,"âĢ":5682,"Ġfain":5683,"Ġbind":5684,"inger":5685,"urmur":5686,"ĠPes":5687,"ames":5688,"ĠDown":5689,"upational":5690,"bert":5691,"Ġdiagnosing":5692,"beta":5693,"Ġfathers":5694,"Ġ33":5695,"Ġretinoblastoma":5696,"Ġstructural":5697,"Ġtriggered":5698,"Ġerup":5699,"oclonic":5700,"producing":5701,"Ġanomaly":5702,"CE":5703,"vo":5704,"inic":5705,"reak":5706,"Ġpsoriasis":5707,"aries":5708,"entially":5709,"idus":5710,"ĠSCD":5711,"Ġnec":5712,"ĠGM":5713,"ĠEwing":5714,"aget":5715,"Ġtransmission":5716,"Ġfather":5717,"ĠIntestinal":5718,"ĠManagement":5719,"Ġstopping":5720,"Ġosteochond":5721,"Ġpopulations":5722,"Ġsalivary":5723,"ĠUnder":5724,"Barr":5725,"Ġophthalm":5726,"ĠTissue":5727,"Ġnails":5728,"Ġorth":5729,"ĠATP":5730,"ĠCy":5731,"aken":5732,"Ġwear":5733,"Ġenamel":5734,"Ġuseful":5735,"ĠCho":5736,"ĠProstate":5737,"ĠMyopia":5738,"Ġcenters":5739,"ĠDysarthria":5740,"Ġsurvival":5741,"ĠFamily":5742,"Ġminerals":5743,"Ġporphyria":5744,"bi":5745,"uv":5746,"Ġsaturated":5747,"Ġrh":5748,"ĠFat":5749,"Ġrecent":5750,"Ġprep":5751,"arcole":5752,"ranch":5753,"ĠSecond":5754,"Ġconsum":5755,"alker":5756,"Ġincision":5757,"Ġknowledge":5758,"ĠAnteverted":5759,"Ġeasy":5760,"Ġstimulation":5761,"Ġgangli":5762,"Ġedema":5763,"Ġconsciousness":5764,"An":5765,"CL":5766,"RSA":5767,"aments":5768,"kal":5769,"stones":5770,"olic":5771,"imens":5772,"ĠPers":5773,"Ġchick":5774,"ĠBy":5775,"Ġunless":5776,"oked":5777,"Ġdiver":5778,"Ġdamages":5779,"rix":5780,"riers":5781,"Ġmultip":5782,"Ġsuggested":5783,"havioral":5784,"lanted":5785,"Ġlysosomes":5786,"Ġsusceptibility":5787,"aulty":5788,"23":5789,"ered":5790,"ki":5791,"rid":5792,"rection":5793,"Ġthigh":5794,"ilities":5795,"idrosis":5796,"ĠAlopecia":5797,"uric":5798,"Ġana":5799,"imot":5800,"imosis":5801,"ĠMT":5802,"ĠPle":5803,"Ġdefic":5804,"ĠHLA":5805,"herited":5806,"Ġprotects":5807,"Ġupon":5808,"oglobulin":5809,"Ġneuroblastoma":5810,"Ġstanding":5811,"Ġdesign":5812,"Ġgrams":5813,"Ġeasier":5814,"Ġworsens":5815,"ĠOnly":5816,"Ġsince":5817,"Ġexpected":5818,"fac":5819,"yndromic":5820,"Ġtarget":5821,"Ġdid":5822,"asive":5823,"ope":5824,"ĠAF":5825,"ĠSarcoma":5826,"irrhosis":5827,"isters":5828,"ĠDon":5829,"izure":5830,"Ġchilds":5831,"Ġ35":5832,"Ġepidermolysis":5833,"omycin":5834,"lammation":5835,"Ġeffectively":5836,"Ġperiodic":5837,"hydram":5838,"Ġinvolvement":5839,"Ġcatheters":5840,"Ġeyelid":5841,"Ġindicate":5842,"Ġportion":5843,"ĠUTIs":5844,"Ġepiphysis":5845,"ĠCombination":5846,"Al":5847,"MG":5848,"TE":5849,"burg":5850,"vuls":5851,"warf":5852,"Ġov":5853,"Ġinvers":5854,"Ġbifida":5855,"ĠAp":5856,"Ġlength":5857,"Ġstone":5858,"ĠPaget":5859,"isting":5860,"Ġrather":5861,"cluding":5862,"ostasis":5863,"logic":5864,"ipidus":5865,"Ġcoll":5866,"Ġcompression":5867,"ĠAny":5868,"Ġdyskinesia":5869,"Ġappl":5870,"ophimosis":5871,"Ġround":5872,"Ġhyperparathyroidism":5873,"tras":5874,"Ġremission":5875,"Ġcoughing":5876,"Ġdivide":5877,"Ġsweating":5878,"Ġcortical":5879,"Ġinterest":5880,"arcolepsy":5881,"ES":5882,"LI":5883,"sin":5884,"Ġsn":5885,"Ġfash":5886,"Ġfaulty":5887,"osc":5888,"romat":5889,"Ġasymmet":5890,"Ġinfertility":5891,"emann":5892,"ĠGSD":5893,"ĠLarge":5894,"Ġphal":5895,"Ġinvestig":5896,"Ġaging":5897,"ĠHyperreflexia":5898,"Ġcontinues":5899,"Ġpenet":5900,"Ġmaintaining":5901,"www":5902,"Ġnurse":5903,"Ġchambers":5904,"Ġoropharyngeal":5905,"Ġdangerous":5906,"Ġfashion":5907,"'ll":5908,"OR":5909,"jur":5910,"nios":5911,"uck":5912,"oring":5913,"omia":5914,"ĠmtDNA":5915,"Ġgout":5916,"romosome":5917,"ĠHunt":5918,"cytic":5919,"cythemia":5920,"Ġventricular":5921,"Ġcoma":5922,"ĠRNA":5923,"ĠFirst":5924,"ĠNausea":5925,"Ġenc":5926,"agille":5927,"Ġcarotid":5928,"Ġblockers":5929,"Ġinstrument":5930,"Ġpotentially":5931,"Ġcircul":5932,"Ġlayers":5933,"Ġphysically":5934,"Ġbruising":5935,"Ġsteroids":5936,"osuppress":5937,"hydramnios":5938,"iatric":5939,"ky":5940,"Ġsed":5941,"ĠAre":5942,"ĠCauses":5943,"olin":5944,"ĠPress":5945,"ĠEating":5946,"Ġmeal":5947,"Ġmeals":5948,"Ġshoulder":5949,"ĠNeonatal":5950,"Ġhypermobility":5951,"deficiency":5952,"Ġinteract":5953,"ĠPatent":5954,"plications":5955,"Ġbelieved":5956,"Ġhyd":5957,"hydr":5958,"Ġsuddenly":5959,"Ġtoxins":5960,"Ġsounds":5961,"Ġvariations":5962,"Ġsweat":5963,"Ġcommunication":5964,"Ġglomerul":5965,"Ġcardiovascular":5966,"omatous":5967,"Ġfissure":5968,"Ġsequence":5969,"thyroidism":5970,"augh":5971,"mat":5972,"nisone":5973,"oni":5974,"alking":5975,"orax":5976,"Ġbas":5977,"Ġische":5978,"oul":5979,"Ġregression":5980,"igence":5981,"ĠACT":5982,"elves":5983,"ĠCY":5984,"iral":5985,"Ġseek":5986,"adias":5987,"ĠIncoordin":5988,"ĠGlaucoma":5989,"tenance":5990,"asts":5991,"Ġshrink":5992,"elligence":5993,"ĠHealthy":5994,"Ġgastric":5995,"ĠComp":5996,"Ġcountries":5997,"ĠALS":5998,"III":5999,"ĠWilms":6000,"ĠNoonan":6001,"ĠDevelopmental":6002,"Ġoncologist":6003,"ĠMitochondrial":6004,"causing":6005,"warfism":6006,"ĠIncoordination":6007,"EB":6008,"can":6009,"Ġsquamous":6010,"Ġcounseling":6011,"Ġthems":6012,"isp":6013,"Ġfund":6014,"Ġtouch":6015,"odic":6016,"reating":6017,"Ġseeds":6018,"Ġrise":6019,"gnathia":6020,"loproliferative":6021,"Ġloose":6022,"kins":6023,"Ġacet":6024,"Ġoveractive":6025,"Ġscient":6026,"Ġtwice":6027,"Ġaccess":6028,"Ġregularly":6029,"ancomycin":6030,"Ġcontractions":6031,"Ġrupture":6032,"Ġovary":6033,"ĠPressure":6034,"Ġthemselves":6035,"ections":6036,"ror":6037,"tte":6038,"with":6039,"Ġagenesis":6040,"Ġmurmur":6041,"Ġwid":6042,"Ġwrit":6043,"Ġtobacco":6044,"ĠCurrent":6045,"ĠDystonia":6046,"ĠOut":6047,"pecific":6048,"Ġlooks":6049,"Ġinsipidus":6050,"range":6051,"ocyst":6052,"forming":6053,"Ġpathways":6054,"Ġneuronal":6055,"ĠSpecial":6056,"transferase":6057,"Ġschool":6058,"Ġaimed":6059,"Ġarrhythmias":6060,"Ġhumans":6061,"Ġantigen":6062,"Ġdivertic":6063,"PT":6064,"RCA":6065,"light":6066,"rint":6067,"top":6068,"ucle":6069,"Ġsore":6070,"ally":6071,"Ġiss":6072,"Ġchain":6073,"ĠFinger":6074,"order":6075,"amino":6076,"andibular":6077,"Ġinsurance":6078,"argy":6079,"Ġcholest":6080,"Ġhemangi":6081,"aff":6082,"affe":6083,"Ġinfectious":6084,"borne":6085,"hetase":6086,"Ġeruption":6087,"Ġphalanges":6088,"GH":6089,"aut":6090,"kel":6091,"inter":6092,"reot":6093,"alact":6094,"ctase":6095,"abl":6096,"amer":6097,"Ġchin":6098,"ĠHip":6099,"ĠOsteoporosis":6100,"resistant":6101,"ĠFound":6102,"ĠStem":6103,"Ġcopper":6104,"avatum":6105,"ĠAngi":6106,"ĠAlagille":6107,"Ġblue":6108,"binism":6109,"ĠDeep":6110,"Ġexcavatum":6111,"Ġprediabetes":6112,"ception":6113,"scape":6114,"Ġtiredness":6115,"Ġextremely":6116,"pitations":6117,"See":6118,"mutation":6119,"vol":6120,"Ġcigare":6121,"Ġpract":6122,"Ġmood":6123,"Ġdro":6124,"Ġwww":6125,"eter":6126,"urns":6127,"uts":6128,"ĠIB":6129,"ĠMild":6130,"ĠDental":6131,"phosphate":6132,"ately":6133,"gnosed":6134,"ibly":6135,"Ġlie":6136,"ocortic":6137,"Ġnovo":6138,"appear":6139,"othorax":6140,"airs":6141,"ickets":6142,"Ġblister":6143,"Ġendothe":6144,"Ġchecking":6145,"stein":6146,"Ġleukoencephalopathy":6147,"ĠEncephal":6148,"ĠExerc":6149,"ĠMicrophthalmia":6150,"Ġmaterials":6151,"elination":6152,"oprotein":6153,"Ġvasculitis":6154,"ĠImpaired":6155,"Ġversion":6156,"ĠBiologic":6157,"Ġtoenails":6158,"BP":6159,"Ġol":6160,"rokes":6161,"ĠThyroid":6162,"ĠAnd":6163,"Ġstick":6164,"ĠMa":6165,"ĠFGFR":6166,"ordosis":6167,"Ġdiabetic":6168,"Ġlooking":6169,"oglobin":6170,"ospadias":6171,"Ġsmooth":6172,"ĠConst":6173,"ullary":6174,"Ġexercises":6175,"abolic":6176,"Ġexcision":6177,"Ġadolescent":6178,"Ġbilateral":6179,"Ġbenefits":6180,"Ġsends":6181,"Ġchannel":6182,"ĠInternal":6183,"ĠUltras":6184,"ĠUTI":6185,"ĠThrombocytopenia":6186,"sensitive":6187,"placement":6188,"chea":6189,"ned":6190,"rast":6191,"ux":6192,"Ġtick":6193,"Ġaplasia":6194,"rex":6195,"Ġsul":6196,"Ġsph":6197,"Ġfro":6198,"ĠTur":6199,"idal":6200,"Ġbeans":6201,"ĠPituitary":6202,"ĠFib":6203,"Ġlot":6204,"Ġperic":6205,"Ġrelief":6206,"Ġvariability":6207,"Ġinvad":6208,"ĠDeficiency":6209,"Ġintera":6210,"ĠComplications":6211,"Ġpoorly":6212,"retin":6213,"calcinosis":6214,"Ġinserts":6215,"Ġulcerative":6216,"ĠWilson":6217,"ondrodysplasia":6218,"Ġdestroyed":6219,"Ġfacility":6220,"Ġaware":6221,"Ġfolds":6222,"asthenia":6223,"oscoliosis":6224,"22":6225,"24":6226,"CR":6227,"dependent":6228,"pes":6229,"Ġiodine":6230,"Ġtask":6231,"Ġlic":6232,"Ġstores":6233,"ĠMer":6234,"Ġinfusion":6235,"Ġabuse":6236,"Ġdiagnostic":6237,"Ġmyoclonus":6238,"Ġaccident":6239,"ĠSpinocerebellar":6240,"Ġhemophilia":6241,"Ġpassing":6242,"Ġnephropathy":6243,"Ġnonsyndromic":6244,"Ġelbows":6245,"Ġscientific":6246,"ĠFoundation":6247,"ĠUltrasound":6248,"MO":6249,"girdle":6250,"junct":6251,"nih":6252,"poly":6253,"including":6254,"Ġmax":6255,"ionic":6256,"opa":6257,"ĠHirs":6258,"teryg":6259,"ineal":6260,"iva":6261,"acing":6262,"ĠBronch":6263,"Ġoccupational":6264,"Ġmeet":6265,"ĠRead":6266,"Ġdoesnt":6267,"Ġconsists":6268,"Ġinches":6269,"ĠWeak":6270,"Ġsinuses":6271,"ondroplasia":6272,"Ġscleroderma":6273,"Ġneoplasia":6274,"malonic":6275,"Ġdopamine":6276,"Ġpenetrance":6277,"terygium":6278,",\"":6279,"CM":6280,"bar":6281,"atus":6282,"Ġpup":6283,"Ġfish":6284,"Ġbig":6285,"Ġtool":6286,"ĠAch":6287,"ĠMotor":6288,"ĠPy":6289,"ĠDam":6290,"ĠOsteop":6291,"emb":6292,"ĠNutrition":6293,"Ġmedium":6294,"ocardi":6295,"iparesis":6296,"riction":6297,"Ġpale":6298,"ĠDec":6299,"uff":6300,"Ġprocessing":6301,"Ġsensorineural":6302,"afety":6303,"virus":6304,"ĠMales":6305,"tebral":6306,"Ġhemorrhagic":6307,"microg":6308,"position":6309,"ĠFactors":6310,"Ġdegree":6311,"Ġurologist":6312,"Ġganglia":6313,"Ġchicken":6314,"bind":6315,"dL":6316,"ipe":6317,"moplantar":6318,"small":6319,"Ġaction":6320,"room":6321,"asoph":6322,"ĠTS":6323,"ouble":6324,"ĠSudden":6325,"ĠSingle":6326,"Ġprop":6327,"Ġconcer":6328,"ĠMain":6329,"Ġchlor":6330,"ĠHD":6331,"Ġcomm":6332,"ighter":6333,"Ġmeant":6334,"Ġpersistent":6335,"Ġadded":6336,"Ġmaintenance":6337,"common":6338,"Ġkeeping":6339,"ĠPhot":6340,"Ġcreatine":6341,"ĠHepatic":6342,"Ġeduc":6343,"Ġboys":6344,"Ġparasite":6345,"Ġinflamed":6346,"Ġcarbon":6347,"Ġichthyosis":6348,"ĠEEG":6349,"BA":6350,"Ġsomet":6351,"Ġsources":6352,"Ġcream":6353,"itz":6354,"icip":6355,"ilation":6356,"Ġlent":6357,"ĠPel":6358,"third":6359,"irls":6360,"ively":6361,"Ġshaped":6362,"Ġspecifically":6363,"Ġshoulders":6364,"ĠAdd":6365,"Ġfemoral":6366,"remor":6367,"Ġcyc":6368,"Ġmaternal":6369,"Ġcontractures":6370,"Ġmeaning":6371,"Ġpyruvate":6372,"Ġexpectancy":6373,"ĠMonoclonal":6374,"ov":6375,"inct":6376,"Ġcamer":6377,"Ġfail":6378,"edness":6379,"ĠIE":6380,"steroid":6381,"ĠMic":6382,"ĠPoor":6383,"ĠBar":6384,"Ġsharp":6385,"Ġrecords":6386,"epithe":6387,"ĠBehavioral":6388,"Ġcompared":6389,"Ġoption":6390,"Ġarterial":6391,"Ġiris":6392,"Ġnoncancerous":6393,"Ġpasses":6394,"ĠExp":6395,"Ġexercising":6396,"Ġbelly":6397,"metastatic":6398,"Ġconduct":6399,"Ġcutis":6400,"Ġaspiration":6401,"Ġnoticeable":6402,"Ġcarefully":6403,"Ġethnic":6404,"Ġissues":6405,"bil":6406,"gren":6407,"ield":6408,"iari":6409,"kers":6410,"self":6411,"Ġbyp":6412,"Ġmast":6413,"Ġdont":6414,"raxia":6415,"idel":6416,"otens":6417,"ĠCa":6418,"ĠMY":6419,"ĠPancreat":6420,"Ġasbestos":6421,"ivitis":6422,"acia":6423,"ĠBRCA":6424,"ĠGH":6425,"Ġtesticular":6426,"Ġprenatal":6427,"Ġpersonality":6428,"Ġrelatives":6429,"avir":6430,"colored":6431,"ontan":6432,"Ġhormonal":6433,"ĠProximal":6434,"Ġaggressive":6435,"ĠAdministration":6436,"Ġpolyposis":6437,"aryng":6438,"omalacia":6439,"Ġprofessionals":6440,"Ġconduction":6441,"Ġspasticity":6442,"Ġallergic":6443,"Ġlymphatic":6444,"Ġgranul":6445,"Ġphosphorus":6446,"Ġpericard":6447,"binding":6448,"cosis":6449,"home":6450,"rig":6451,"rans":6452,"atys":6453,"onism":6454,"icardi":6455,"Ġwarfarin":6456,"arts":6457,"ĠInstead":6458,"Ġresol":6459,"Ġcontrast":6460,"ometaphyseal":6461,"Ġmyoclonic":6462,"ĠAlcohol":6463,"Ġblisters":6464,"Ġquant":6465,"osteronism":6466,"Ġmajority":6467,"Ġimmunoglobulin":6468,"Ġkilling":6469,"Ġpigmentosa":6470,"ĠPolycystic":6471,"anconi":6472,"Ġinterferes":6473,"Ġwrist":6474,"Ġinfluence":6475,"Ġgastroenterologist":6476,"Ġamyotrophy":6477,"otensin":6478,"atyspond":6479,"'ve":6480,"Walker":6481,"dosteronism":6482,"lordosis":6483,"uity":6484,"reter":6485,"Ġnystagmus":6486,"Ġgerms":6487,"ĠAML":6488,"ĠSo":6489,"chain":6490,"ades":6491,"clic":6492,"ĠBenign":6493,"ĠFemal":6494,"Ġraises":6495,"Ġspaced":6496,"ept":6497,"ĠSystem":6498,"Ġcarnitine":6499,"Ġju":6500,"Ġtranslocation":6501,"ralog":6502,"Ġnewborn":6503,"Ġteens":6504,"liomas":6505,"Ġmetaph":6506,"Ġlipid":6507,"Ġpossibly":6508,"obstruction":6509,"methyl":6510,"ĠAntib":6511,"yloep":6512,"Ġconducts":6513,"Ġwaiting":6514,"Ġcryst":6515,"Ġectodermal":6516,"ĠBeta":6517,"Ġrelatively":6518,"ulopathy":6519,"Ġcervix":6520,"ĠFallot":6521,"Ġintervention":6522,"Ġreflexes":6523,"Ġasymmetry":6524,"idelines":6525,"ralogy":6526,"blo":6527,"iphyseal":6528,"esophageal":6529,"anal":6530,"opy":6531,"oplegia":6532,"Ġlat":6533,"ypic":6534,"ĠGly":6535,"ĠGluc":6536,"ostatic":6537,"Ġestabl":6538,"Ġassess":6539,"Ġanywhere":6540,"ocyte":6541,"Ġclos":6542,"Ġdistress":6543,"ĠMyopathy":6544,"ĠCoarse":6545,"Ġharder":6546,"ĠEpis":6547,"Ġnephrotic":6548,"Ġfocus":6549,"Ġencephalitis":6550,"ĠCorneal":6551,"Ġaxial":6552,"Ġequino":6553,"Ġenlargement":6554,"ĠActivity":6555,"abdomyosarcoma":6556,"steroidal":6557,"break":6558,"face":6559,"feld":6560,"pen":6561,"pons":6562,"Ġpills":6563,"ĠScre":6564,"ulinemia":6565,"Ġdisappear":6566,"Ġsteroid":6567,"uretic":6568,"Ġextend":6569,"Ġnegative":6570,"ĠEm":6571,"Ġoverload":6572,"ropoietic":6573,"Ġobject":6574,"Ġcomplication":6575,"Ġrestrict":6576,"Ġmicroscopic":6577,"functional":6578,"Ġdecreases":6579,"Ġprednisone":6580,"Ġfracture":6581,"Ġaneurysms":6582,"Ġregulating":6583,"Ġtransmitted":6584,"Ġreports":6585,"ĠApproved":6586,"Ġtunnel":6587,"Ġroles":6588,"SS":6589,"grow":6590,"ogen":6591,"sol":6592,"wann":6593,"Ġamp":6594,"inations":6595,"reen":6596,"Ġsil":6597,"Ġfocal":6598,"itory":6599,"veolar":6600,"ĠTry":6601,"Ġgrains":6602,"Ġlarynx":6603,"ĠSj":6604,"ĠPKD":6605,"Ġasse":6606,"Ġasleep":6607,"Ġinfest":6608,"Ġvancomycin":6609,"ĠBart":6610,"ĠEch":6611,"ĠGenu":6612,"okal":6613,"ermis":6614,"Ġinsomnia":6615,"ophobia":6616,"ĠProte":6617,"Ġredness":6618,"Ġbring":6619,"rogenesis":6620,"ĠPregn":6621,"Ġfeelings":6622,"Ġdeviation":6623,"Ġradius":6624,"Ġangles":6625,"Ġdrops":6626,"neurons":6627,"Ġtriglycerides":6628,"Ġoperation":6629,"Ġossification":6630,"ucopolysaccharidosis":6631,"Ġprostatic":6632,"ĠConstipation":6633,"Ġcommerc":6634,"EE":6635,"IA":6636,"birth":6637,"py":6638,"Ġalopecia":6639,"heochrom":6640,"Ġsomatic":6641,"oric":6642,"Ġpack":6643,"icians":6644,"Ġandrogen":6645,"ĠTypes":6646,"otin":6647,"Ġonto":6648,"Ġheal":6649,"ĠHeter":6650,"Ġsignal":6651,"clus":6652,"arest":6653,"ĠRest":6654,"ĠRLS":6655,"Ġdoing":6656,"amilial":6657,"Ġacuity":6658,"ĠVitamin":6659,"asses":6660,"Ġclothing":6661,"Ġregard":6662,"Ġmetast":6663,"Ġblack":6664,"Ġconsult":6665,"Ġimproves":6666,"Ġhairline":6667,"oxide":6668,"Ġexams":6669,"Ġconnect":6670,"Ġembol":6671,"onadal":6672,"Ġdelays":6673,"________":6674,"Ġhypophosphat":6675,"ĠCholesterol":6676,"ferences":6677,"ĠBlepharophimosis":6678,"Ġinversus":6679,"ĠScreening":6680,"Con":6681,"hest":6682,"Ġcit":6683,"Ġpap":6684,"aria":6685,"ĠAcc":6686,"rombin":6687,"uty":6688,"Ġexcre":6689,"Ġbloating":6690,"Ġaltern":6691,"neuro":6692,"ĠLanger":6693,"Ġintelligence":6694,"Ġtypical":6695,"ĠBefore":6696,"Ġurg":6697,"rier":6698,"Ġintermediate":6699,"Ġspeaking":6700,"ĠSporadic":6701,"anned":6702,"Ġgastritis":6703,"Ġtender":6704,"ĠDepending":6705,"Ġclosely":6706,"Ġbiliary":6707,"Ġconfirmed":6708,"Ġvaccines":6709,"positive":6710,"Ġcataracts":6711,"Ġsynthetase":6712,"thralgia":6713,"yrosine":6714,"Ġfriends":6715,"Ġcheeks":6716,"Ġaccompanied":6717,"ĠExercise":6718,"Ġsphinct":6719,"homeostasis":6720,"14":6721,"dontia":6722,"iant":6723,"Ġbasis":6724,"Ġwords":6725,"etrosis":6726,"ĠAge":6727,"Ġones":6728,"ausal":6729,"Ġridge":6730,"illation":6731,"ips":6732,"Ġimpulses":6733,"Ġdiffuse":6734,"ĠVar":6735,"Ġvaric":6736,"Ġtwit":6737,"Ġtrachea":6738,"axis":6739,"Ġweaken":6740,"asticity":6741,"iplegic":6742,"ĠAdv":6743,"Ġextent":6744,"Ġflows":6745,"varus":6746,"ĠArthralgia":6747,"SAID":6748,"Ġimmunosuppress":6749,"Ġtrying":6750,"Ġhydrocephalus":6751,"ĠTrache":6752,"osylation":6753,"microgyria":6754,"Ġequinovarus":6755,"BG":6756,"hist":6757,"yond":6758,"Ġpay":6759,"Ġpterygium":6760,"Ġfontan":6761,"arms":6762,"loon":6763,"ĠAx":6764,"Ġonline":6765,"ĠCone":6766,"ĠCirrhosis":6767,"ĠPT":6768,"ĠProl":6769,"ditions":6770,"Ġvent":6771,"respons":6772,"Ġyourself":6773,"ĠEs":6774,"ĠRef":6775,"ileptic":6776,"ophthal":6777,"Ġcorner":6778,"Ġhyperactivity":6779,"Ġhemiplegic":6780,"ructose":6781,"Ġobstru":6782,"ĠHemiplegia":6783,"ĠHemolytic":6784,"ashimot":6785,"Ġswallowed":6786,"Ġmucosa":6787,"Ġsurrounds":6788,"Ġsimplex":6789,"microcephaly":6790,"Ġsickle":6791,"Ġsacs":6792,"Ġgluten":6793,"ĠHuntington":6794,"Ġcholestasis":6795,"mine":6796,"okin":6797,"Ġpo":6798,"any":6799,"elitis":6800,"ĠSal":6801,"ulitis":6802,"stage":6803,"ĠMental":6804,"ĠPot":6805,"ĠPediatric":6806,"Ġrigidity":6807,"ĠFanconi":6808,"asty":6809,"ductive":6810,"arden":6811,"Ġmoves":6812,"ĠChromosome":6813,"Ġneurologic":6814,"ĠDementia":6815,"ĠEnl":6816,"Ġplanus":6817,"anthocytosis":6818,"kinsonism":6819,"ĠALL":6820,"Ġsolution":6821,"Ġoxid":6822,"Ġallergies":6823,"Ġventricles":6824,"Ġmyeloma":6825,"requent":6826,"Ġmistaken":6827,"Ġblistering":6828,"ĠDamage":6829,"NK":6830,"oz":6831,"isy":6832,"arning":6833,"Ġwind":6834,"elch":6835,"ĠMig":6836,"ĠPA":6837,"quit":6838,"Ġexplain":6839,"Ġneurom":6840,"ĠInjur":6841,"ortical":6842,"ĠEvery":6843,"Ġoccurring":6844,"ippl":6845,"ĠHypop":6846,"Ġassist":6847,"Ġroom":6848,"Ġ45":6849,"stitial":6850,"Ġgrade":6851,"Ġvaginal":6852,"NIH":6853,"Ġequip":6854,"ĠUsually":6855,"Ġnucleus":6856,"ĠAtria":6857,"do":6858,"ding":6859,"iol":6860,"ovent":6861,"ritation":6862,"rhea":6863,"Ġsial":6864,"Ġfit":6865,"Ġbrown":6866,"ĠhGH":6867,"ĠTremor":6868,"Ġgirls":6869,"ĠST":6870,"ĠSlow":6871,"Ġcone":6872,"ĠCSF":6873,"ola":6874,"actin":6875,"acid":6876,"plit":6877,"pping":6878,"ĠVision":6879,"ĠVacc":6880,"ĠKRT":6881,"systemic":6882,"ucinations":6883,"Ġimprovement":6884,"Ġcardi":6885,"losp":6886,"Ġdescribe":6887,"magnetic":6888,"Ġlactic":6889,"Ġlactate":6890,"Ġprone":6891,"brand":6892,"olipidosis":6893,"Ġthorax":6894,"hemiparesis":6895,"Ġhypertrophy":6896,"ĠGuide":6897,"Ġmethods":6898,"Ġchoroid":6899,"Ġtears":6900,"oproteinemia":6901,"Ġheterot":6902,"ĠDecisions":6903,"Ġsomething":6904,"CS":6905,"Certain":6906,"IL":6907,"PE":6908,"equ":6909,"pox":6910,"Ġcost":6911,"Ġclin":6912,"lebrand":6913,"Ġexh":6914,"Ġvac":6915,"Ġrickets":6916,"Ġlethal":6917,"Ġalbinism":6918,"Ġlosing":6919,"endym":6920,"Ġuncommon":6921,"Ġcope":6922,"ĠVentric":6923,"Ġcoagulation":6924,"Ġshortened":6925,"Ġmonoclonal":6926,"hydroxy":6927,"urned":6928,"ĠWithin":6929,"Ġlasting":6930,"olemia":6931,"ĠWillebrand":6932,"Ġpalmoplantar":6933,"ĠCFS":6934,"Ġarrhythmia":6935,"Ġtrained":6936,"ĠMECP":6937,"Ġsarcoidosis":6938,"elogenous":6939,"ĠACTH":6940,"Ġinvaders":6941,"mark":6942,"ythe":6943,"Ġtuber":6944,"Ġtelangiectasia":6945,"Ġaid":6946,"Ġaids":6947,"ĠTox":6948,"Ġbeyond":6949,"ĠAB":6950,"ĠAicardi":6951,"ĠSCN":6952,"ulomegaly":6953,"ĠPsych":6954,"actor":6955,"Ġrates":6956,"andy":6957,"Ġdiffer":6958,"ĠUr":6959,"Ġcarpal":6960,"Ġunderl":6961,"comp":6962,"culature":6963,"Ġurea":6964,"osterior":6965,"Ġepisode":6966,"Ġrepeat":6967,"Ġdestruction":6968,"Ġneoplasm":6969,"Ġregulates":6970,"Ġdissection":6971,"ĠWolf":6972,"Ġinstitutions":6973,"ĠFlat":6974,"Ġfainting":6975,"Ġcamera":6976,"CHD":6977,"LN":6978,"MA":6979,"inn":6980,"Ġincomplete":6981,"Ġpus":6982,"ĠTake":6983,"Ġnames":6984,"opathies":6985,"ĠAAT":6986,"ĠSm":6987,"Ġprotr":6988,"ĠIch":6989,"ĠCons":6990,"Ġstrokes":6991,"ĠPneum":6992,"ĠHashimot":6993,"clamp":6994,"Ġvon":6995,"aki":6996,"ĠGerm":6997,"Ġoccurred":6998,"Ġensure":6999,"agang":7000,"ĠUV":7001,"ĠUsing":7002,"ĠUmb":7003,"ĠStress":7004,"ĠVRSA":7005,"unctional":7006,"Ġinjure":7007,"ĠConductive":7008,"Ġnonfunctional":7009,"Ġcavus":7010,"ĠAnterior":7011,"Ġhypotension":7012,"ĠVISA":7013,"ĠGraves":7014,"adenopathy":7015,"achycardia":7016,"ĠHernia":7017,"growing":7018,"Ġcommercial":7019,"ĠVentriculomegaly":7020,"clampsia":7021,"ĠUmbilical":7022,"OD":7023,"bed":7024,"cend":7025,"pread":7026,"Ġosteop":7027,"Ġborder":7028,"ĠAV":7029,"ĠSplit":7030,"Ġsecre":7031,"ĠRem":7032,"hens":7033,"Ġlet":7034,"ĠLate":7035,"amines":7036,"Ġpartially":7037,"Ġjer":7038,"ocythemia":7039,"Ġparoxysmal":7040,"formed":7041,"Ġvitre":7042,"idespread":7043,"oradically":7044,"Ġtopical":7045,"Ġsupplement":7046,"ything":7047,"fibrosis":7048,"Ġtremors":7049,"Ġturned":7050,"Ġtraining":7051,"ĠSupport":7052,"ĠAvoiding":7053,"ĠHistory":7054,"Ġbasic":7055,"Ġtasks":7056,"atyspondyly":7057,"responsive":7058,"Ġequipment":7059,"Res":7060,"UT":7061,"XT":7062,"aur":7063,"Ġtib":7064,"atrophy":7065,"Ġskeleton":7066,"ese":7067,"omotor":7068,"Ġmention":7069,"ĠAMD":7070,"urt":7071,"utz":7072,"sect":7073,"sequ":7074,"Ġyoure":7075,"thermia":7076,"acol":7077,"ĠFlex":7078,"ĠNF":7079,"mond":7080,"ĠLif":7081,"izers":7082,"agon":7083,"Ġcolum":7084,"oking":7085,"Ġmoist":7086,"ĠUrine":7087,"Ġrelie":7088,"ĠHyperm":7089,"ĠDiabetic":7090,"Ġneurofibromatosis":7091,"Ġirritation":7092,"Ġbumps":7093,"Ġexpress":7094,"Ġleukodystrophy":7095,"hypert":7096,"ideroblastic":7097,"Ġdetermined":7098,"Ġallowing":7099,"Ġprofound":7100,"Ġintrahepatic":7101,"Ġmillimeters":7102,"Ġsunlight":7103,"Ġabsorption":7104,"Ġnodules":7105,"iversity":7106,"ĠArrhythmia":7107,"Ġnecrosis":7108,"Le":7109,"filled":7110,"ioc":7111,"nutrition":7112,"oal":7113,"oval":7114,"ofus":7115,"uz":7116,"inine":7117,"ati":7118,"omelia":7119,"Ġbad":7120,"asaki":7121,"ctal":7122,"ĠTri":7123,"ĠAgenesis":7124,"Ġproximal":7125,"ĠMar":7126,"ĠMandibular":7127,"ĠPosterior":7128,"abies":7129,"ĠInguinal":7130,"ording":7131,"ĠNail":7132,"ĠLab":7133,"Ġtesticles":7134,"genetic":7135,"ologists":7136,"angio":7137,"ĠIts":7138,"ĠVomiting":7139,"Ġtransfusion":7140,"Ġtransverse":7141,"Ġteen":7142,"oplasm":7143,"Ġcorners":7144,"ietz":7145,"proportion":7146,"Ġballoon":7147,"Ġcarcinoid":7148,"Ġconnects":7149,"awasaki":7150,"Ġcontributes":7151,"ohist":7152,"Ġbronchitis":7153,"ochrome":7154,"Ġmonitoring":7155,"Ġneutroph":7156,"ĠPalmoplantar":7157,"Ġobser":7158,"Ġmotion":7159,"Ġcrease":7160,"ĠIchthyosis":7161,")?":7162,"63":7163,"RNA":7164,"uh":7165,"ences":7166,"Ġmitral":7167,"uscular":7168,"osus":7169,"mporal":7170,"Ġrear":7171,"Ġretic":7172,"opausal":7173,"iamine":7174,"Ġlines":7175,"Ġstore":7176,"ĠMelanoma":7177,"Ġexch":7178,"Ġtri":7179,"tense":7180,"imple":7181,"Ġparticip":7182,"angular":7183,"ondrogenesis":7184,"Ġhypogonadism":7185,"ĠSyn":7186,"Ġinjections":7187,"Ġinterpre":7188,"Ġslows":7189,"Ġsensations":7190,"Ġxanth":7191,"Ġsleeping":7192,"lobulinemia":7193,"ĠMalabsorption":7194,"ĠHypertrophic":7195,"Ġprompt":7196,"Ġcramping":7197,"Ġfrontal":7198,"ĠMetabolic":7199,"scoliosis":7200,"Ġnutritional":7201,"ĠSpasticity":7202,"Ġaxonal":7203,"ĠClick":7204,"lippel":7205,"Ġventricle":7206,"auro":7207,"iosis":7208,"yne":7209,"yloc":7210,"induced":7211,"aturia":7212,"Ġsoles":7213,"erob":7214,"Ġintense":7215,"Ġfaster":7216,"itt":7217,"Ġwatch":7218,"osmia":7219,"Ġreact":7220,"Ġbeat":7221,"romelia":7222,"Ġstroma":7223,"ĠMc":7224,"ĠHol":7225,"acanthocytosis":7226,"ĠED":7227,"Ġrecently":7228,"Ġmeg":7229,"anging":7230,"cker":7231,"Ġresection":7232,"ĠTherefore":7233,"Ġblurred":7234,"amma":7235,"Ġpalms":7236,"Ġparan":7237,"rectile":7238,"ĠDeafness":7239,"ĠConditions":7240,"ĠLeigh":7241,"ervation":7242,"Ġosteoarthritis":7243,"umbar":7244,"ĠQT":7245,"Ġdisturbances":7246,"olipid":7247,"Ġpalmar":7248,"Ġnursing":7249,"ĠBleeding":7250,"Ġechoes":7251,"Ġfibrous":7252,"oretinal":7253,"Ġgrants":7254,"Ġauditory":7255,"ĠRobin":7256,"uvant":7257,"Ġdeficit":7258,"Ġendothelial":7259,"Ġadolescents":7260,"21":7261,"OP":7262,"Par":7263,"People":7264,"St":7265,"VT":7266,"melanoma":7267,"anosis":7268,"Ġboun":7269,"Ġmess":7270,"rome":7271,"ĠCow":7272,"ĠCutaneous":7273,"Ġselect":7274,"artment":7275,"achment":7276,"ĠPhenotypic":7277,"Ġbutton":7278,"ĠChar":7279,"apar":7280,"Ġinvasive":7281,"ĠAnything":7282,"Ġreductase":7283,"Ġstopped":7284,"ĠExam":7285,"igmented":7286,"Ġcontinuous":7287,"Ġreplaced":7288,"ĠTumor":7289,"ĠPostaxial":7290,"Ġdiaphragmatic":7291,"Ġpreviously":7292,"Ġcilia":7293,"Ġfrozen":7294,"cended":7295,"ME":7296,"fen":7297,"gt":7298,"Ġatom":7299,"heart":7300,"Ġsafety":7301,"Ġcrow":7302,"omon":7303,"Ġfar":7304,"Ġfum":7305,"Ġfructose":7306,"Ġwidespread":7307,"Ġhollow":7308,"iliary":7309,"Ġstent":7310,"Ġseizure":7311,"terin":7312,"thern":7313,"ĠGA":7314,"ĠEl":7315,"Ġfear":7316,"Ġtestosterone":7317,"ocell":7318,"Ġparticles":7319,"Ġscrot":7320,"ĠAnal":7321,"Ġcovered":7322,"Ġsubt":7323,"degeneration":7324,"Ġchecks":7325,"ĠLeber":7326,"ractures":7327,"rosarcoma":7328,"Ġreplacing":7329,"Ġnarrowed":7330,"Ġpromote":7331,"Ġpneumothorax":7332,"Ġmagnet":7333,"Ġscreen":7334,"Ġmacula":7335,"Ġruns":7336,"Ġsolid":7337,"congenital":7338,"ĠIgA":7339,"Ġirritability":7340,"Ġdeformity":7341,"Ġpsychiatric":7342,"ĠBladder":7343,"Ġtips":7344,"ĠCardiac":7345,"Ġconcentr":7346,"Ġdentist":7347,"onephritis":7348,"Ġcircum":7349,"Ġlichen":7350,"ĠMicromelia":7351,"heochromocytoma":7352,"ocellular":7353,"Ġscrotum":7354,"AF":7355,"FD":7356,"Familial":7357,"IP":7358,"aid":7359,"burn":7360,"flow":7361,"hidrosis":7362,"ivery":7363,"Ġ.":7364,"Ġtalking":7365,"Ġcate":7366,"Ġcross":7367,"erated":7368,"Ġmacro":7369,"Ġwarning":7370,"ĠThat":7371,"oden":7372,"odontia":7373,"olor":7374,"ĠMake":7375,"ĠPr":7376,"thargy":7377,"aining":7378,"Ġweb":7379,"ĠThor":7380,"ĠThose":7381,"ĠThree":7382,"Ġfollic":7383,"pper":7384,"linemia":7385,"ficiencies":7386,"ongest":7387,"Ġacts":7388,"Ġwheelch":7389,"syn":7390,"angeal":7391,"Ġdefective":7392,"Ġlessen":7393,"hypop":7394,"rosencephaly":7395,"Ġcreates":7396,"Ġthrombosis":7397,"Ġevents":7398,"Ġcrani":7399,"Ġaccounts":7400,"Ġreading":7401,"activation":7402,"Ġthymus":7403,"diagnosed":7404,"Ġclusters":7405,"ĠWeakness":7406,"Ġquantity":7407,"Ġrearrange":7408,"FS":7409,"IT":7410,"Pro":7411,"cardi":7412,"iology":7413,"ks":7414,"rees":7415,"Ġca":7416,"Ġder":7417,"Ġdust":7418,"Ġdairy":7419,"Ġdwarfism":7420,"Ġnarcolepsy":7421,"osplenomegaly":7422,"ĠAT":7423,"uritus":7424,"ĠMac":7425,"seous":7426,"ify":7427,"Ġwhites":7428,"ĠHPV":7429,"Ġgeneration":7430,"ĠDandy":7431,"Ġsealed":7432,"Ġcomb":7433,"iveness":7434,"actant":7435,"ĠBiopsy":7436,"Ġtrue":7437,"Ġlobes":7438,"Ġoccult":7439,"ĠWa":7440,"ander":7441,"Ġmegal":7442,"issencephaly":7443,"Ġcarin":7444,"Ġtranscription":7445,"Ġcollects":7446,"Ġsurg":7447,"omyositis":7448,"rior":7449,"ĠProptosis":7450,"oxif":7451,"Ġhemodialysis":7452,"Ġureters":7453,"ĠComplete":7454,"ĠWhite":7455,"Ġapproach":7456,"Ġprolif":7457,"Ġpieces":7458,"Ġcorticosteroid":7459,"rateg":7460,"nicious":7461,"Ġsaliva":7462,"Ġneutropenia":7463,"ococci":7464,"Ġglycosylation":7465,"Ġimmediately":7466,"19":7467,"NP":7468,"OT":7469,"appro":7470,"cat":7471,"erectomy":7472,"porter":7473,"xin":7474,"Ġterat":7475,"onge":7476,"ancies":7477,"Ġmor":7478,"Ġdouble":7479,"ara":7480,"Ġhouse":7481,"Ġnasoph":7482,"lymph":7483,"optosis":7484,"Ġbeating":7485,"Ġbeats":7486,"ots":7487,"otrans":7488,"ulates":7489,"ĠCM":7490,"Ġstra":7491,"ĠMS":7492,"Ġchondrodysplasia":7493,"ĠDASH":7494,"ĠRight":7495,"acet":7496,"acrim":7497,"Ġ55":7498,"monia":7499,"ĠThus":7500,"Ġunlike":7501,"ĠHypoglycemia":7502,"Ġlymphocytic":7503,"Ġproduct":7504,"ĠKawasaki":7505,"ochromatosis":7506,"Ġlipofus":7507,"Ġpolycystic":7508,"ĠUniversity":7509,"Ġkeeps":7510,"Ġbowing":7511,"Ġprognathia":7512,"Ġpredict":7513,"Ġreceptors":7514,"Ġthickening":7515,"Ġfocused":7516,"iectasis":7517,"Ġpleural":7518,"Ġamyloid":7519,"menopausal":7520,"ĠCystic":7521,"Ġpublic":7522,"ĠOccasionally":7523,"Ġoriginal":7524,"Ġischemic":7525,"Ġsphincter":7526,"SAIDs":7527,"okinase":7528,"ĠMigraine":7529,"ĠLifestyle":7530,"Ġsurgically":7531,"GI":7532,"HO":7533,"If":7534,"cans":7535,"Ġband":7536,"Ġhyst":7537,"Ġnipple":7538,"iden":7539,"Ġgalact":7540,"ithine":7541,"ullo":7542,"resh":7543,"ĠFlu":7544,"ĠEst":7545,"loprosencephaly":7546,"ficial":7547,"duction":7548,"Ġplasm":7549,"Ġplanned":7550,"ĠSystemic":7551,"avor":7552,"omenon":7553,"lix":7554,"Ġhistiocytosis":7555,"Ġtherefore":7556,"Ġbrighter":7557,"Ġchoices":7558,"ĠPeritoneal":7559,"ĠPolyhydramnios":7560,"ocerebellar":7561,"fibr":7562,"heumatic":7563,"Ġconstant":7564,"ossible":7565,"Ġmyelodysplastic":7566,"Ġgallstones":7567,"ĠMacrotia":7568,"Ġplease":7569,"ĠIgM":7570,"Ġnaturally":7571,"ĠTopics":7572,"ĠBaby":7573,"Ġmechanisms":7574,"Ġciliary":7575,"Ġphenomenon":7576,"affeine":7577,"ĠTurner":7578,"ĠFemales":7579,"ĠCowden":7580,"GA":7581,"Re":7582,"UR":7583,"based":7584,"dent":7585,"siness":7586,"Ġtort":7587,"inel":7588,"Ġoils":7589,"Ġfine":7590,"lec":7591,"Ġwet":7592,"ĠTreating":7593,"Ġnit":7594,"raction":7595,"ĠAortic":7596,"urning":7597,"ĠSP":7598,"stances":7599,"Ġstabil":7600,"Ġstrateg":7601,"imab":7602,"ĠPCD":7603,"ĠHo":7604,"vern":7605,"class":7606,"acification":7607,"ĠElect":7608,"ĠLack":7609,"Ġsporadically":7610,"Ġoccasionally":7611,"ĠUI":7612,"ĠGenetics":7613,"Ġnewly":7614,"ĠAnxiety":7615,"feron":7616,"ĠAlpha":7617,"ontocerebellar":7618,"Ġsoil":7619,"Ġmildly":7620,"Ġmenstru":7621,"fused":7622,"Ġbalanced":7623,"ĠHypertrichosis":7624,"Ġcuts":7625,"ĠPlatele":7626,"Ġdelivery":7627,"Ġphysician":7628,"ĠHyd":7629,"Ġretinitis":7630,"Ġoxidase":7631,"Ġcontraction":7632,"Ġschwann":7633,"ĠCraniosynostosis":7634,"ĠPartial":7635,"Ġepidermis":7636,"otemporal":7637,"Ġcervical":7638,"ĠCalc":7639,"mphalocele":7640,"ridox":7641,"romatase":7642,"DP":7643,"eous":7644,"hour":7645,"ka":7646,"tific":7647,"escended":7648,"ora":7649,"orrhea":7650,"Ġinguinal":7651,"Ġfasting":7652,"ley":7653,"roys":7654,"Ġwires":7655,"asc":7656,"ĠTrouble":7657,"oste":7658,"Ġgirdle":7659,"ĠABC":7660,"ithiasis":7661,"ĠDyst":7662,"Ġvocal":7663,"ĠFine":7664,"Ġleiomy":7665,"ĠEMG":7666,"Ġwearing":7667,"Ġnote":7668,"Ġadequ":7669,"ĠUpper":7670,"Ġmalabsorption":7671,"ĠKlippel":7672,"Ġclouding":7673,"Ġexpression":7674,"ramidal":7675,"ĠUnlike":7676,"Ġscanner":7677,"ĠMedicine":7678,"Ġmidface":7679,"regional":7680,"ĠNephrotic":7681,"Ġmechanism":7682,"Ġfloor":7683,"ĠVertebral":7684,"ĠAsthma":7685,"rachnodactyly":7686,"Ġophthalmoplegia":7687,"Ġregarding":7688,"ĠFlexion":7689,"cap":7690,"non":7691,"namic":7692,"Ġaph":7693,"Ġoculo":7694,"Ġsit":7695,"Ġcoc":7696,"esic":7697,"Ġpalliative":7698,"Ġfer":7699,"Ġfused":7700,"Ġblu":7701,"Ġrehabilitation":7702,"romal":7703,"stable":7704,"Ġstable":7705,"Ġstrain":7706,"ĠPet":7707,"akes":7708,"berg":7709,"Ġket":7710,"idepress":7711,"ĠUps":7712,"Ġactin":7713,"Ġtransloc":7714,"Ġhighly":7715,"oplasty":7716,"axy":7717,"Ġsuppl":7718,"Ġclav":7719,"rittle":7720,"ĠOpacification":7721,"Ġerythe":7722,"ĠAmerica":7723,"Ġdestroys":7724,"Ġmucous":7725,"ĠSpecifically":7726,"Ġadjust":7727,"Ġantigens":7728,"ĠHypothyroidism":7729,"Ġexperienced":7730,"penis":7731,"erobic":7732,"gthen":7733,"Ġcarinatum":7734,"tificial":7735,"ĠUpslanted":7736,"88":7737,"NMRI":7738,"VD":7739,"eloproliferative":7740,"failure":7741,"oblastoma":7742,"pers":7743,"pipe":7744,"specific":7745,"Ġcup":7746,"onate":7747,"ontal":7748,"itic":7749,"ason":7750,"Ġhole":7751,"Ġtoler":7752,"ĠTub":7753,"osine":7754,"rad":7755,"otonic":7756,"ĠIBS":7757,"thase":7758,"une":7759,"phic":7760,"allen":7761,"ĠBifid":7762,"Ġitchy":7763,"illi":7764,"erma":7765,"Ġmalformed":7766,"Ġamn":7767,"Ġcharged":7768,"rane":7769,"ĠRegular":7770,"Ġshortly":7771,"Ġhyperthyroidism":7772,"Ġaccur":7773,"Ġdetects":7774,"iotics":7775,"Ġdigestion":7776,"Ġenterococci":7777,"Ġrecurrence":7778,"Ġthrombophilia":7779,"Ġdecide":7780,"ohns":7781,"development":7782,"Ġkeratin":7783,"ĠBetween":7784,"Ġlymphedema":7785,"Ġmeningitis":7786,"ĠNerve":7787,"ĠProteinuria":7788,"ĠPlease":7789,"ĠCurrently":7790,"ĠMaintain":7791,"ĠPancreatic":7792,"odenum":7793,"lecanthus":7794,"Signs":7795,"dystonia":7796,"mble":7797,"nithine":7798,"yz":7799,"heres":7800,"Ġsib":7801,"Ġpil":7802,"Ġfield":7803,"Ġdr":7804,"igmoid":7805,"ĠSide":7806,"utism":7807,"ĠIron":7808,"Ġstays":7809,"ĠPseudo":7810,"ĠDow":7811,"ember":7812,"ĠGall":7813,"Ġsport":7814,"iller":7815,"illain":7816,"cks":7817,"ensing":7818,"Ġcompound":7819,"ĠKle":7820,"ĠKCN":7821,"Ġdamaging":7822,"Ġhyperkeratosis":7823,"ĠAsian":7824,"Ġmicrophthalmia":7825,"Ġveloc":7826,"ĠSpina":7827,"ĠJe":7828,"ĠLeiden":7829,"Ġseeing":7830,"ĠRadial":7831,"ĠAtypical":7832,"lapping":7833,"Ġdistinct":7834,"Ġstimulate":7835,"Ġgradual":7836,"Ġconcentration":7837,"ocarditis":7838,"Ġmosaicism":7839,"Ġdiscovered":7840,"Ġsubunit":7841,"Ġmultiplex":7842,"ĠOutlook":7843,"Ġchickenpox":7844,"Ġpoison":7845,"Ġlipofuscinosis":7846,"LP":7847,"dema":7848,"greg":7849,"hans":7850,"lich":7851,"mmet":7852,"rung":7853,"remia":7854,"Ġson":7855,"Ġpseud":7856,"Ġprior":7857,"Ġmm":7858,"Ġwrong":7859,"usually":7860,"ĠTTP":7861,"Ġreve":7862,"iddle":7863,"etitive":7864,"ume":7865,"chsp":7866,"ĠPV":7867,"cyl":7868,"ĠFOX":7869,"ĠInfect":7870,"ĠEas":7871,"ĠEry":7872,"Ġproven":7873,"Ġhelping":7874,"Ġarise":7875,"Ġundescended":7876,"Ġtransient":7877,"ĠKerat":7878,"Ġantit":7879,"Ġdetachment":7880,"riasis":7881,"ĠProgram":7882,"Ġparkinsonism":7883,"iovenous":7884,"Ġendoscopy":7885,"ĠBlock":7886,"ĠExtra":7887,"Ġpolycythemia":7888,"tensity":7889,"ĠHemodialysis":7890,"ĠOpitz":7891,"ĠInflammatory":7892,"ĠDepression":7893,"Ġlactase":7894,"Ġcoordinating":7895,"ĠMetaphyseal":7896,"ĠTransplant":7897,"Ġlocalized":7898,"ĠOsteoarthritis":7899,"Ġcomponents":7900,"ĠCardiomyopathy":7901,"Ġrecognize":7902,"Ġpunctata":7903,"Ġepithelial":7904,"ĠSince":7905,"ĠAttack":7906,"ocystinuria":7907,"Ġinteraction":7908,"Ġbypass":7909,"reteral":7910,"Ġmetaphyses":7911,"ĠBartter":7912,"Congenital":7913,"Ġsibling":7914,"chsprung":7915,"77":7916,"Be":7917,"morph":7918,"print":7919,"Ġtall":7920,"onin":7921,"eryth":7922,"oming":7923,"anemia":7924,"asculitis":7925,"Ġthreatening":7926,"odigital":7927,"ĠThen":7928,"Ġann":7929,"Ġextensive":7930,"ugs":7931,"ugar":7932,"oreflexia":7933,"ĠGing":7934,"Ġatrial":7935,"ĠEdema":7936,"ĠLAM":7937,"Ġdifferences":7938,"Ġcompounds":7939,"ĠChori":7940,"Ġdioxide":7941,"ĠAngina":7942,"Ġhyperpigmentation":7943,"ĠShortness":7944,"Ġdiets":7945,"Ġimproved":7946,"Ġbreasts":7947,"Ġminim":7948,"rophoblastic":7949,"Ġautism":7950,"Ġduodenum":7951,"ĠHemochromatosis":7952,"Ġvisible":7953,"Ġdisruption":7954,"rypsin":7955,"ĠImaging":7956,"rocytosis":7957,"Ġbiologic":7958,"ĠCarriers":7959,"brile":7960,"ĠBlue":7961,"ĠIrregular":7962,"ĠUsher":7963,"ĠDietary":7964,"ĠServices":7965,"New":7966,"Ġcirculating":7967,"Ġsulf":7968,"endymoma":7969,"hensive":7970,"Ġatoms":7971,"Ġunlikely":7972,"50":7973,"AIDS":7974,"ILD":7975,"YY":7976,"iors":7977,"rat":7978,"Ġtensing":7979,"ishing":7980,"Ġpoll":7981,"edema":7982,"Ġmar":7983,"Ġwounds":7984,"mphedema":7985,"rape":7986,"Ġreview":7987,"Ġet":7988,"ĠMening":7989,"ityriasis":7990,"Ġkyph":7991,"Ġsparse":7992,"Ġspaces":7993,"Ġperox":7994,"Ġdiagnoses":7995,"Ġchewing":7996,"tice":7997,"Ġsecondhand":7998,"Ġspreading":7999}